#version: 0.2 - Trained by `huggingface/tokenizers`
Ä Ä
ÄÄ ÄÄ
ÄÄÄÄ ÄÄÄÄ
r e
i n
s t
- >
e r
a t
o n
s e
l e
t Ä
i f
a r
o r
d e
a l
if Ä
ÄÄÄÄÄÄÄÄ ÄÄÄÄÄÄÄÄ
e n
u r
t _
m e
re t
c h
s i
Ä 0
t e
t r
ur n
ret urn
a n
st r
l o
ÄÄÄÄ ÄÄ
c on
g e
i d
t i
u n
a d
c o
e l
return Ä
c k
s Ä
m p
e Ä
in t
r o
e _
s _
i t
a me
= =
ÄÄÄÄÄÄÄÄ ÄÄÄÄ
n e
in g
: :
f i
b u
_ p
L L
t h
t o
d Ä
c t
l a
N U
in tÄ
Ä p
m a
si z
se Ä
l i
c a
st Ä
at a
NU LL
u e
T _
m _
d _
c e
E R
le n
v al
y p
f f
Ä 1
u t
o l
g _
E _
r i
ch ar
Ä i
st at
I N
ti on
o de
o p
er r
d ata
d i
Ä NULL
u l
s s
e t
con stÄ
c tÄ
f or
s h
re a
I n
s p
f o
n ame
siz e
e x
b le
u m
! =
str u
c _
R E
+ +
r a
t a
Ä f
Ä s
Ä c
_ S
u p
d o
stru ctÄ
en t
ÄÄÄÄ ifÄ
er _
ÄÄ Ä
y _
b j
i l
char Ä
R e
c Ä
se t
& &
st _
re s
0 0
a p
t yp
ca seÄ
v o
\ n
bu f
l _
Ä b
en d
A L
O N
v e
Ä n
O R
te x
at e
vo id
de v
i le
y Ä
fi le
ge t
ar g
a ck
i s
a c
lo ck
el seÄ
_ C
rea k
3 2
er Ä
b o
A T
E N
\n "
ge t_
T R
Ä m
in fo
x _
k e
o f
si g
p r
p _
for Ä
n o
A R
ÄÄÄÄÄÄÄÄÄÄÄÄÄÄÄÄ ÄÄÄÄÄÄÄÄÄÄÄÄÄÄÄÄ
re n
o ut
u s
an d
G _
l in
x Ä
err or
ne w
_ f
b reak
re ad
at i
v er
h e
a ge
< <
S _
p o
t er
i g
ad d
bj e
e d
m o
s c
S E
_ tÄ
de f
D E
_ t
Ä g
str ing
m s
at h
| |
G et
re e
c tion
S t
M A
st d
ÄÄ ifÄ
int f
D _
_ c
Ä0 x
Ä S
i Ä
ÄÄÄÄ returnÄ
ati on
lo c
C on
la g
L O
p Ä
bu ff
v i
% s
co un
k _
S tr
h a
ÄÄÄÄÄÄÄÄÄÄÄÄÄÄÄÄ ÄÄÄÄÄÄÄÄ
D e
L E
p u
b _
ul t
to Ä
i z
A S
val ue
i st
void Ä
C o
Ä 2
sig ne
T E
s er
size of
typ e
Ä w
i c
el se
u int
co l
ER R
a ble
ÄÄÄÄÄÄÄÄ ifÄ
Ä d
p tr
un signe
se t_
li st
ct or
co de
Ä elseÄ
Ä t
_ P
: Ä
si on
ti me
p ro
c ur
ch e
unsigne dÄ
q u
a se
ri v
in de
ÄÄÄÄÄÄÄÄ ÄÄ
_ _
E C
" Ä
h t
s o
Ä r
L _
ke y
S T
s k
e v
tex t
Ä G
p ar
A C
Ä F
p a
m at
l u
m Ä
Ä C
P _
g th
I D
_ b
a u
n ode
ÄÄÄÄ Ä
m m
n um
ri te
+ =
e c
i p
ne x
r c
T I
pr intf
siz e_
me m
Ä P
g Ä
st ar
stat i
Ä re
o ff
6 4
Ä constÄ
al se
Str ing
A N
T yp
do w
q ue
y te
L o
al l
s u
r r
M E
g o
ct x
Ä intÄ
Ä a
Äi Ä
or t
E n
N ame
len Ä
B U
Ä sizeof
s y
add r
p ut
a m
co mp
i _
e s
V al
en tr
w h
R O
- -
ÄÄÄÄÄÄ Ä
e w
K _
D ata
re f
M _
1 Ä
o bje
T Y
l f
U N
or d
F I
i o
E X
ex t
return Ä0
ÄÄÄÄÄÄÄÄÄÄÄÄÄÄÄÄ ÄÄÄÄ
o u
la y
E x
P o
er t
c p
in _
stat e
al _
tr ue
C _
th is
ro w
m ode
Ä h
len gth
buff er
i t_
coun t
re g
typ eÄ
in dow
stati cÄ
v _
a _
ÄÄÄÄÄÄÄÄ returnÄ
int er
U E
ile Ä
S et
S I
f lag
1 6
D I
ren t
ma p
c t_
i r
siz eÄ
w id
T o
Ä M
te m
ta ble
A D
B u
an ge
S iz
w rite
he ad
l on
ERR OR
N O
Ä v
u re
rr or
p riv
f a
Ä _
s a
P ro
> =
Ä con
h o
f ree
r ame
F F
i x
at or
S T_
Ä str
Ä in
it er
O bje
lin e
n Ä
I T
e m
il d
s w
ma ge
se lf
size_ tÄ
val u
re tÄ
id Ä
al loc
o t
di r
Ä x
ch Ä
at e_
m d
d u
a ss
Ä j
en t_
l Ä
F _
F ile
g in
st rea
ÄÄ returnÄ
p re
TY P
o bj
Typ e
inde x
lo at
p ath
A r
ing Ä
. 0
% d
li st_
o w
O p
ss age
d d
f _
and le
res ult
t mp
2 Ä
i s_
AL SE
IN T
C h
In fo
do u
n _
Ä0 Ä
m ent
C H
in d
to _
a g
S ER
end if
G E
at tr
dou ble
b ack
X _
Ä I
fi g
ÄÄÄÄÄÄ ifÄ
o k
L I
se n
a s
b e
ha sh
wh ileÄ
O _
P ar
, Ä
c mp
0 Ä
bo ol
nex t
V AL
i m
O P
M P
p l
N ode
_p tr
u se
E rror
lo ad
Ä l
L A
S e
an s
co mm
che ck
star t
ra y
ce s
C E
Ä T
ma x
ÄÄÄÄ intÄ
TR UE
p t
def a
ul l
d r
Ä e
a b
L ist
p p
u i
at eÄ
lo g
ÄÄÄÄ caseÄ
f d
v e_
le _
b ase
te mp
S S
un d
v ar
ro up
U n
p e
C O
b yte
T H
go toÄ
data Ä
Ä 4
ig ht
U R
en tÄ
op tion
Siz e
n el
_ re
d b
m u
se tÄ
te d
Val ue
b lock
Ä 3
b er
w or
Ä k
constÄ charÄ
T Ä
t k
A P
s n
t y
v Ä
m in
_t mp
Ä g_
c li
f re
con t
c e_
a il
ÄÄÄÄÄÄÄÄ Ä
ul tÄ
name Ä
read _
A dd
L E_
elseÄ ifÄ
g l
2 _
< =
k en
f alse
su b
fi r
c r
Ä D
n t
c re
Ä B
ms g
AS SER
ra w
Ä new
_ in
ap p
m b
uint 32
_ F
wid th
p h
col or
con ne
u sÄ
O K
Bu ff
ÄÄÄÄÄÄÄÄÄÄÄÄ ifÄ
_p o
u m_
M e
M a
Z E
st an
entr y
r Ä
ex p
sw it
in e
TYP E_
_S T
ch an
ÄÄÄÄÄÄÄÄ ÄÄÄÄÄÄ
\ "
K e
_p ro
M O
lo w
fi l
a re
le te
C ol
len ame
arg s
ER _
1 _
Äf alse
t s
val Ä
Ä true
Ä N
p s
Y _
' Ä
f loat
1 0
In de
Ä H
Ä returnÄ
r _
file _
ol d
u b
f Ä
lo se
el d
off set
B o
so ck
m t
at ch
a y
b it
00 00
on _
i me
Ä de
op en
on e
> >
me ssage
ro m
_p ar
D i
1 2
i tÄ
IN G
U S
ce ss
A _
ÄÄÄÄ forÄ
B _
K E
pu t_
in t_
ÄÄÄÄ if
vi ew
s or
I d
it h
Ä u
st o
A I
b Ä
Ä E
Ä m_
un c
po s
o _
ÄÄ intÄ
w indow
for mat
stat us
Co un
L en
A B
Obje ct
Ä data
ur ce
se s
fi lename
mp le
ac tion
defa ult
h andle
U L
c al
T e
re q
ev ent
valu eÄ
f printf
ig h
O L
N um
R _
Ä y
flag sÄ
R I
ca se
er s
A M
c l
t t
O B
p ort
res ultÄ
ÄelseÄ ifÄ
Ke y
Ä L
i te
k Ä
la ss
r intf
co p
s rc
m l
le v
' \
re ss
U T
strea m
r t
o d
m ar
W id
n g
obje ct_
i mage
arg v
sig n
coun tÄ
in ue
le an
ing _
ma sk
S P
ca st
| =
lon g
F or
0 x
Ä A
a v
EX P
re c
obje ct
f t
i de
t k_
Ä st
c an
V ER
uint 8
ve ctor
E Q
g ra
ar d
Äp o
H e
MA X
con fig
c eÄ
P tr
Ä 8
DE BU
ren t_
cp y
Ä buf
T ext
I s
f rame
if def
l l
un ction
que st
lev el
swit chÄ
l er
_ de
bu g
ÄÄÄÄÄÄÄÄÄÄÄÄÄÄÄÄ ÄÄÄÄÄÄÄÄÄÄÄÄ
LO C
n d
stat eÄ
I C
ass ert
S C
M ode
se le
Ä to
Buff er
tr a
%s "
new _
al iz
g roup
g en
ON _
Ä o
P y
mo ve
_ get_
up d
b l
all back
tr ans
Ä std
t ing
Äp ro
p er
ÄÄÄÄÄÄ returnÄ
p or
tr ol
ad d_
N E
i tem
A LL
it y
St at
ne t
id x
I _
N _
ÄF ALSE
err Ä
P RO
sc ri
error Ä
C ur
ma x_
si tion
Äp ar
a ms
Äc ur
S p
ou t_
re e_
ch ild
A t
stat usÄ
_ e
ÄÄ g
al Ä
dev ic
fi x
Ä R
lo b
mu tex
W indow
T ime
in Ä
con text
le ar
lo g_
P ath
I tem
val id
T h
EC T_
re d
f s
la b
Ä len
unsignedÄ intÄ
_ s
le Ä
or y
cont inue
c md
la s
e p
O C
G L
en d_
f e
sy n
OB J
T r
li stÄ
B O
err no
on t
n um_
se _
. "
Ä %
ar ch
Inde x
ar get
an g
en v
chan nel
p c
_ Ä
LO G_
s g
en u
le ment
Ä op
D AT
s q
D B
no tÄ
I S
Ä name
sto re
f s_
h w
i e
in i
d up
s r
a Ä
U P
te st
Re ad
ac e_
U C
Ä V
i bu
tr y
Ä di
c b
w a
_S I
ac ti
ce re
string Ä
E v
" %
0 2
Ät mp
g r
p tion
F ALSE
R A
en dÄ
ar ray
Lo g
tex tÄ
ses sion
data _
for m
au toÄ
inde xÄ
L EN
lab el
fi eld
ÄÄÄÄÄÄÄÄ caseÄ
i ce
T able
00 0
ÄÄÄÄ g
_S E
S TR
In t
re ate
W _
ÄÄÄÄÄÄÄÄÄÄÄÄÄÄÄÄ ÄÄ
lin eÄ
IN VAL
w ord
to ken
al o
I O
Ä z
Ä1 Ä
ÄÄÄÄÄÄÄÄÄÄÄÄÄÄÄÄ ifÄ
s "
Re g
Obje ctÄ
wor k
ma p_
St ate
Ä Q
str o
0 '
I T_
f p
m i
Äb reak
ibu te
r un
ÄNULL Ä
Ä TRUE
O ut
a ile
in it
p th
c m
c lose
Äb o
S y
file Ä
mp ty
te st_
ti m
2 5
ge tÄ
G T
c el
p age
p ack
Co mp
ver sion
au to
li c
co d
D O
ASSER T_
head er
" "
v eÄ
3 _
ma in
ÄconstÄ charÄ
p ert
j o
M S
bo o
ou tÄ
con d
valu e_
E D
c s
V _
Ä se
un k
int 32
us er
F lag
1 1
Coun t
ch ange
Te st
Re s
Ä 5
_C ON
S o
ta g
D E_
Ä th
di sp
ÄÄ forÄ
i ck
reg ist
F O
Ä structÄ
po int
c f
qu er
a ce
uint32 _tÄ
typ e_
ÄÄÄÄÄÄÄÄÄÄÄÄ returnÄ
def in
to p
al lo
he ight
sp ec
o c
M ap
ÄÄÄÄ constÄ
A ME
di s
lon gÄ
p ix
la st
m y
EN T
ht t
V er
info Ä
I G
h and
e dÄ
ho st
return _
V i
Ä out
" %s
ter n
q _
. .
I P
a st
str cmp
Typ eÄ
u eÄ
vi ce
intÄ i
t x
Ä W
b a
Con text
A l
S Ä
ÄÄÄÄÄÄÄÄ ÄÄÄ
la st_
std err
length Ä
off setÄ
G ui
T O
s d
pu sh
I D_
B lock
an ag
e d_
fir st
Ch ar
buff er_
l d
p d
A G
tex t_
id _
error _
co re
_C O
ptr Ä
st ack
no w
LO G
con n
_C H
A c
ca le
_p ath
I m
ri g
ro ot
Po int
N ew
L i
buf Ä
be gin
E L
Ar ray
code Ä
I F
_ST AT
C ON
_ d
nex t_
y x_
l s
ar ra
if i
Co mm
or m
) "
u te
ul t_
Ä this
s z
M o
bo x
T T
li m
Len gth
ul ti
Ä size
'\ 0'
G tk
ch _
le m
ke y_
a ct
V e
AL _
lo t
at ure
Ä O
Än ode
A V
H _
write _
e t_
ser ver
Col or
Ar g
un lock
flag s
o Ä
Me ssage
du le
Ä value
at o
DEBU G
it s
- =
ca che
ÄÄÄÄÄÄÄÄ ÄÄÄÄÄÄÄ
op _
TI ON
lay er
ar t
CE SS
de lete
TE X
r cÄ
L ine
Ä charÄ
B yte
mp _
I mage
te dÄ
L IN
lin k
an d_
c i
ca ch
um ent
h dr
s on
ation Ä
en able
f in
Ä __
um n
EXP ECT_
stan ce
he ck
else ÄÄÄÄ
bu tt
op t
option s
w ar
dev ice
S h
fre eÄ
St rea
C li
sp on
m on
mo d
V ar
I S_
k e_
AI L
P U
Ä X
_f ail
r u
M at
star t_
us er_
unsignedÄ charÄ
_SI ZE
ta in
SI ZE
ÄÄÄÄÄÄ break
me th
Ä sp
ex pr
stati c_
ro m_
dev _
Ev ent
i on
Ä _tmp
TYP E
g er
o tÄ
th read
g tk_
F i
ÄÄÄ ifÄ
S er
At tr
C ode
mem cpy
d y
i sÄ
conne ction
Ä 6
con fi
Ä q
ad er
str Ä
F rame
5 0
RE G
ÄÄ if
M em
p i
y le
u s_
r ange
Q u
Siz eÄ
RE S
_b ack
lu a
C T
star tÄ
w e
O ff
j Ä
w r
Ä arg
po sÄ
Ä get
_ g
re sÄ
ame ter
c pu
ÄÄÄÄÄÄÄÄ if
uint8 _tÄ
c_ str
io _
hash _
Ä1 6
b s
-- --
tr ack
ca p
ÄÄÄÄÄÄÄÄÄÄÄÄ break
LOC K
ting s
loc al
string _
to t
lin e_
FI LE
con f
d st
M B
H andle
Äcon st
so urce
cli ent
igh tÄ
nex tÄ
r int
an dÄ
iter ator
Ä voidÄ
W rite
ASSER T
ÄÄÄÄ p
Ä key
b r
UC CESS
C heck
ull ptr
Con fig
O n
cur rent_
if _fail
l at
t en
ÄÄÄÄÄÄÄÄÄÄÄÄÄÄÄÄ ÄÄÄÄÄÄ
Ve ctor
stro y
Än um
mb ol
a sh
out put
Äf lag
8 Ä
F rom
ta il
u 32
C L
OR D
%s \n"
mode Ä
uint 64
ad ap
boo lean
w _
3 Ä
AR G
Vi ew
que ue
Ä get_
con trol
o s
H E
mp l
_p yx_
st er
cur rent
au th
P re
ON E
V I
Op tion
c lear
ev ent_
de st
re eÄ
e cere
s up
P O
Tr ans
di re
% dÄ
AC K
A u
.0 f
EN T_
L ay
\ t
F OR
se q
ME M
DE F
n er
n g_
Äs o
p la
Ä size_tÄ
alo g
ÄÄ G
sc an
ST AT
ok up
GT K_
_ m
Ä end
Ä file
. \n"
c at
d p
pl y
Ä ch
it or
fa ce
w ith
S a
B IT
c c
bool Ä
i es
t l
defin ed
pa rent
g_ return_
se cond
ref Ä
ve c
AN D
sh are
_ set_
Ä1 0
case Ä0x
A pp
i c_
st e
For mat
ta sk
2 0
" C
Äp ath
ass er
N AME
app end
addr Ä
Ä Get
sen d
ÄÄÄÄ return
re mo
de bug
ÄÄÄÄÄÄÄÄ return
ol d_
_f ree
ar y
arra y_
op er
bu s_
no t
En d
Ästr len
cr yp
ce ption
a s_
ex it
s k_
node Ä
anag er
s v
W AR
Ä U
u e_
ÄÄÄÄÄÄÄÄ forÄ
w Ä
sh ow
cop y
num ber
% sÄ
u _
fre e_
re quest
de sc
P AR
_ size
or tÄ
de n
ÄÄÄÄÄÄÄÄ break
CH EC
RE AD
comm and
ck et
GE T_
un i
in put
ÄÄ caseÄ
le ase
val _
T ree
ser v
_p re
ig n
Stat us
Ma x
P L
ERROR _
EN D
inter n
_ id
Äs rc
IN FO
static_ cast
MA X_
) Ä
_ name
T L
E d
x ml
2 4
S H
_p riv
AT I
b ar
S K
lob al
mat ch
if y
l an
C reate
AB LE
a f
F LA
d "
par am
en er
u sh
ol u
l y
ÄÄÄÄ returnÄ0
8 0
in ode
B ase
stat e_
In put
String Ä
ta b
c lu
butt on
el l
O f
width Ä
en c
s um
Num ber
r b
k er
g n
ti t
mem set
returnÄ NULL
st em
ÄÄÄÄ P
re en
ser t
ren tÄ
e mpty
1 5
ut t
push _back
a ctor
devic eÄ
a i
St art
so ur
U B
in it_
bu ild
t erÄ
M I
N o
ction Ä
" F
Äp re
ÄÄÄÄÄÄÄÄÄÄÄÄ Ä
buff erÄ
u id
qu i
AD D
e e
sp ace
li b
ÄÄÄÄ charÄ
p ha
devic e_
attr ibute
pert y
size_ t
confi g_
T ra
4 _
ke yÄ
ri x
%d "
double Ä
num Ä
ti ve
cach e_
ac eÄ
fil ter
In it
mutex _
Ä J
str dup
r d
if_fail Ä
time Ä
f unc
upd ate_
Po s
strea m_
Wid th
A D_
Y Ä
new Ä
In ter
staticÄ voidÄ
ma ke_
RE F
_ info
allo c_
g charÄ
E V
Q U
mode l
S c
ÄÄ constÄ
%d \n"
_S TR
a in
check _
le ft
TE ST_
h Ä
" /
th eÄ
pr int
w in
F ree
m _p
sp e
) ;
scri pt
Ä self
se d
Ä return
do c
Val ueÄ
N ext
s b
en um
DAT A
te d_
Re f
Im Gui
Äf aile
ÄÄÄÄ structÄ
ix el
_ data
tr an
ERR _
W IN
Li stÄ
P a
c lass
i p_
th e
Strea m
Äbo ol
c las
S ub
T UR
h s
ap _
byte s
ÄÄÄÄÄÄ caseÄ
ad _
c n
A n
out put_
OBJ EC
ng x_
lu sh
Äj Ä
ha s_
d n
ÄÄÄÄ whileÄ
A T_
G L_
ÄÄÄÄÄÄÄÄÄÄÄÄÄÄÄÄÄÄÄÄÄÄÄÄ ÄÄÄÄÄÄ
co m
lo okup
g it_
sa ve
table _
qu al
an t
de d
s l
Äw h
Ä0x 0
__ ecere
Con ne
f n
RE E_
or t_
IN _
intÄ iÄ
d s
pu tÄ
t c
C R
P I
buf _
go to
5 5
V E
n ing
IN G_
cre ate
M L
or ig
d a
upd ate
ra g
str _
Ä buffer
obje ctÄ
AC E
& =
8 _
ÄÄÄÄ G
Ä "
En try
uint 16
Äm ode
0 _
lu gin
f ind
var i
AT E
EN O
al l_
Äi sÄ
De vice
Ä id
FI LE_
op Ä
ms g_
F unction
C a
quer y
vi de
Cur rent
st a
t ree
O bj
b in
o o
d if
Än ullptr
Äflag s
T C
sen d_
dev Ä
b erÄ
q Ä
Se le
U INT
L e
t arget
ÄÄÄÄÄÄÄÄÄÄÄÄÄÄÄÄ ÄÄÄ
E lement
in put_
Lo ck
se c
OR _
Bo x
de l
lock _
UN C
y y
d raw
in k
_ _pyx_
Ä info
Ä ctx
c nt
m enu
r p
Ä2 Ä
Re c
di o
entr yÄ
ÄÄÄÄÄÄÄÄÄÄÄÄÄÄÄÄ ÄÄÄÄÄ
i ve
Äs y
hand ler
col umn
T ER
Comm and
Ä sh
htt p_
" ÄÄ
s m
Ä val
il d_
f rom
un dÄ
re ct
se g
ÄÄÄÄ c
P R
Op er
INT ER
wh ile
x y
c ted
1 3
g_ object_
H ash
se arch
4 Ä
h _
D ir
po ol
_S UCCESS
staticÄ intÄ
Ä ret
ed ge
Ä max
ÄÄÄÄ f
li te
Ä0x ff
op y
par ams
ti aliz
sp rintf
wid get_
S Y
D C
int 64
A UL
_f lag
en sion
gen er
entr y_
stat s
returnÄ ret
D Ä
le t
To ken
IN T_
u tÄ
que ue_
* *
rig ht
ÄÄ EXPECT_
5 _
SI ON
Ä ex
spon se
m er
SE T
_p rintf
v m
l p
h i
add ress
t er_
B Y
or age
Res ult
I R
B E
Äi s
res sion
la ble
F il
ces s_
c allback
dow n
o b
un c_
o st
ation _
ord er
MA SK
6 _
Äp tr
\ x
ro o
or Ä
f dÄ
S Q
arg c
exp ec
J S
X Ä
he ightÄ
mo dule
or _
G roup
DEBU G_
er o
Ä type
U S_
ir q
en cod
Ex p
sn printf
c all
mar k
I L
Äp a
1 00
re que
ÄÄÄÄ break
Ä error
P OR
M C
P er
% u
constÄ char
Info Ä
Ä 7
B it
NO _
Th read
i con
b p
ol y
fi el
KE Y
N ONE
utt on
i al
I ter
de c
sa mple
e tÄ
BU FF
W N
Ä RE
qu en
syn c
up le
O F
on g
in te
Con trol
Par am
Re ct
h el
l g
ÄÄÄÄ else
u c
returnÄ false
" \n"
re l
con tain
32 Ä
Data Ä
Ä list
me m_
S D
th er
defa ult_
i mp
Ä tr
Äw id
U RE
ÄÄÄÄ std
w x
m alloc
ack et
E T
par se
li g
R ow
errno Ä
P F
T O_
Ä argv
i b
G B
Ä ma
u 8
B utton
De bug
c tr
lo op
Ä K
ev el
ch ed
up _
ÄP y
Äm o
re _
wid get
W R
TI ME
time _
val idÄ
Wid get
. 5
W ORD
F unc
Fi eld
r an
Äre g
str n
Node Ä
m an
ch r
ent s
j u
c info
name _
ÄÄÄÄÄÄÄÄÄÄÄÄÄÄÄÄÄÄÄÄÄÄÄÄÄÄÄÄÄÄÄÄ ÄÄÄÄÄÄÄÄ
able Ä
sy m
ur l
VAL UE
1 4
D o
Off set
ti l
di ct
Ä Z
P age
D is
o ver
SE T_
Out put
ÄÄÄÄ s
res sÄ
si ble
St ateÄ
M D
ÄÄÄÄÄÄÄÄÄÄÄÄÄÄÄÄÄÄÄÄÄÄÄÄ ÄÄ
ini sh
Äb yte
U pd
U M
sp in_
fir st_
G R
void ÄÄ
T S
Ä al
t ar
set tings
strea mÄ
M enu
ate d
mask Ä
I te
5 6
' %s
EX T
ex ec
) \n"
Äpo s
9 9
ÄÄÄÄ _
dÄ toÄ
TE D
Q _
returnÄ 1
con st
M AT
Add ress
Mode l
le f
ma _
Ä it
L evel
conne ct
ti c
T A
_P RO
id xÄ
pa ss
Pro cess
tmp Ä
WAR N
g p
f unction
ÄI m
" gl
Op en
TI ON_
ÄÄÄÄ C
load _
unsignedÄ long
gotoÄ out
O UT
Ä obj
ÄÄ structÄ
Ä1 2
N G
olu me
IT E_
F LO
M anager
u d
R o
ut f
unsignedÄ char
e lem
por t_
gra ph
at tern
pr int_
Lo ad
C lass
fa ile
B e
use _
= Ä
4 0
mo un
t p
an ce
_S H
DE C
A s
at _
meth od
code _
ÄÄ charÄ
m l_
_p age
res s_
do _
W ID
o ur
r s
Ä state
12 8
P C
Äs a
DEF AUL
if ic
re sh
Äsizeof Ä
ma pÄ
Bu f
AT TR
W or
Cli ent
Ä count
GE T
sc reen
Sp ace_
stru ct
_t ree_
p ri
p k
de pth
b i
tr yÄ
unsignedÄ longÄ
la y_
time out
c l_
ta sk_
Name Ä
D raw
Name Space_
d one
AC E_
pre v
s on_
a x
ÄÄÄÄ m_
M in
value s
bit s
AG E_
f rom_
A U
Äs er
le s
Ä err
Ä res
ng _ptr
ID Ä
He ader
ÄÄÄÄ elseÄifÄ
W ith
Po sition
th read_
Ä co
lu a_
Äf loat
g g
Inde xÄ
TI M
S E_
h d
BY TE
e lement
adap ter
r b_
Ä result
D R
Ä comp
6 0
re move
stat us_
le w
share d
Attr ibute
e ct
RE TUR
Ä dev
ON G
ÄÄÄÄÄÄÄÄ g
gra m
m y_
m ulti
ro und
ÄÄÄÄÄÄÄÄÄÄÄÄÄÄÄÄÄÄÄÄÄÄÄÄ ÄÄÄ
AR RA
le d
Äc Ä
Än otÄ
' tÄ
syn c_
Ä G_
_e cere
So urce
ad ata
serv er_
ad i
RE E
U T_
ÄÄÄÄÄÄÄÄ intÄ
di m
uint64 _tÄ
Ch ild
Ch ange
on eÄ
A ction
MO DE_
:Ä %
cli ent_
it yÄ
n am
u al
_b yte
P rint
F L
s f
Äb e
ta ck
sy mbol
ÄÄÄÄ d
H and
ÄÄ p
_c ur
E S
g b
g_ freeÄ
Q String
Re quest
or y_
25 6
C allback
int32 _tÄ
Äb ase
Ä static_cast
E INVAL
Ä length
Ä offset
fo und
R ange
inde x_
loc al_
NameSpace_ _ecere
ÄÄÄÄÄÄÄÄ p
ip h
ÄÄÄÄÄÄÄÄÄÄÄÄÄÄÄÄÄÄÄÄÄÄÄÄÄÄÄÄÄÄÄÄ ÄÄÄÄ
ne t_
( )
z Ä
b t
fa il
ma xÄ
NameSpace__ecere __
node _
un it
sign al_
jo b
un refÄ
row Ä
po sition
E rr
Par se
si de
ASSERT_ EQ
E E
Äc li
LI ST_
Ä col
g f
" S
En able
me ta
c d
Ä temp
le x
L ast
G E_
ÄS T
Var i
l ate
i 2
e sÄ
a m_
TE ST
c x
Ä ap
NULL Ä
Stat usÄ
Äb lock
p id
op s
Coun tÄ
scri ption
sour ce_
O FF
con textÄ
acti ve
pa ir
lean up
str len
_p a
f er
Di sp
:Ä %s"
A nd
Al loc
F ont
p i_
Par ameter
Py ObjectÄ
DE V
at Ä
Upd ate
De lete
Mem ory
n s
A ss
Ä line
Äm in
In stance
g u
Äs ub
G H
in d_
tim er
Ä ifÄ
ct xÄ
Ä start
H 5
regist erÄ
ctor y
Äp Ä
Ä read
LA Y
T ag
32 _
i v
CH AR
e k
s lot
se ction
wa it
M P_
level Ä
R T
Ver tex
ch unk
MO DE
' \n
ver t
htt p
f r
" ÄÄÄÄ
ro mÄ
sr c_
ul dÄ
T a
a w
Ca che
sh a
NU M
Äg o
De fa
sta mp
disp lay
an nel
F UNC
a j
in sert
in s
D oc
SE D
T REE_
of Ä
AV E_
t x_
Ä int
Bu ild
Äm sg
mem ory
to m
roo t_
1 9
lim it
ÄÄÄÄÄÄÄÄÄÄÄÄÄÄÄÄ break
" -
R C
d b_
cre ate_
G ST_
ref e
" <
\ \
A d
row s
H O
_ type
ra ph
DI R
path Ä
mp t
dir Ä
H AND
He ight
C E_
por tÄ
bo und
Ä1 00
U ser
NO T_
C all
al i
r x_
N ot
use d
st op
ro ll
M IN
ite m_
RE C
Wid getÄ
elseÄ if
Lay out
ÄÄ elseÄÄÄÄ
1 8
pla ce
v ol
Str u
F AIL
coun t_
et a
__ecere NameSpace__ecere__
O P_
A P_
AT E_
FF FF
refe ren
Q ue
ÄÄ whileÄ
a seÄ
Ä0x 00
' "
re Ä
uint32 _t
ma c
pro to
ct l
ÄÄÄÄÄÄÄÄÄÄÄÄ caseÄ
Lo cal
c or
Ä index
v a_
ff ff
en gin
Äwid th
Me th
intern al
me di
c u
p ad
uint8 _t
ba seÄ
Pro perty
INVAL ID_
" In
cur sor
OBJEC TÄ
ÄF I
ti es
Mat rix
row _
ifi er
AB LE_
3 D
cf g
comp on
V ec
Änew _
V AR
R un
P ER
Ex pr
n orm
AM E_
Val id
ow n
s la
Äv ar
ip e
t or
cur _
g_return_ val_
swit ch
B ACK
n c
AP I
I dÄ
FLA G
1 1_
_ to_
b f
3 0
K ER
m d_
returnÄ true
St yle
b eÄ
re rror
G O
Än Ä
PRO C
_po s
ÄÄÄÄÄÄÄÄÄÄÄÄÄÄÄÄ ÄÄÄÄÄÄÄ
ti tion
Än um_
st yle
F S
asser tÄ
pix el
cop y_
te _
ÄÄÄÄÄÄÄÄÄÄÄÄÄÄÄÄ Ä
_p ush
\" %s
ATI ON
di g
AS S
l it
M M
N et
de s
_P O
64 _
de bu
m entÄ
ces sÄ
child ren
v p
Defa ult
F loat
f m
fin d_
if y_
R et
Ser ver
HE AD
Ä (
if t
T arget
Lo c
h t_
Äg tk_
Ch annel
re al
a rea
point erÄ
n x
hand l
1 7
B ack
Äcon t
am il
ati ve
it er_
con text_
r v
un d_
case cmp
t ree_
FILE Ä
:Ä "
o me
Äi s_
Ä args
Ä 32
ÄÄÄÄÄÄÄÄÄÄÄÄÄÄÄÄÄÄÄÄÄÄÄÄÄÄÄÄÄÄÄÄ ÄÄÄÄÄÄ
re t_
in st
pack et
Qu er
du mp
re d_
KE Y_
T E_
p er_
v id
w d
M atch
ur ation
1 "
% 0
N D
cm d_
ÄÄÄÄÄÄ forÄ
a st_
m is
ang le
" Un
_ list
" P
De f
EN _
SI G
C S
b b
m ent_
M ulti
f mt
Con textÄ
Po inter
M sg
" [
ÄÄÄÄ for
old er
TEX T
A SE
f c
de cl
U NU
AT H
Äi tem
U I
p t_
D el
b ind
sele ction
Äwh ileÄ
to k
p ng_
bl k
f low
sign al
tk _tree_
b er_
constÄ std
on Ä
w ra
ar d_
sp _
_in it
co pe
il l
_ T
ÄÄÄÄ m
F S_
db g
user_ data
reque st_
re set
ifdef Ä
sy s
p g
ÄG T
Äw indow
Ä 9
P ixel
Con t
ÄÄÄÄ g_
CHEC K
_SE T
C opy
Ä time
1 000
v tk
c y
on e_
par ser
constÄ structÄ
block _
entr ies
ÄÄÄÄÄÄÄÄ else
Äs c
C P
de stroy
A GE
p ol
_CH EC
Äg_ strdup
W e
E mpty
h ist
---- ----
ti ty
z _
ur i
M on
Äf rame
AC H
B y
LL _
RE G_
d w
LI ST
me t
ri ver
U E_
US E_
l k
Ä SE
F ind
ÄÄÄÄÄÄÄÄ returnÄ0
fiel d_
re dÄ
ate g
ÄÄ t
Ex ception
t v_
'\n '
tern al
Ä char
ÄÄ g_
j son
con st_
i aliz
a si
asser t_
of _
mp le_
ÄÄÄÄÄÄÄÄreturnÄ NULL
res ult_
war n
it y_
3 4
al pha
do m
Ä ac
us age
now n
S end
di alog
tot al
CO DE
DI S
ÄÄÄÄintÄ i
ÄÄÄÄÄÄÄÄ ÄÄifÄ
ÄÄÄÄÄÄÄÄÄÄÄÄÄÄÄÄ returnÄ
do Ä
e ar
f l
Ma sk
EN D_
_b lock
Ä else
ul l_
info _
P TR
n ull
:Ä %s\n"
ps z
CHEC K_
ifÄ defined
Äc an
table Ä
ap e
ÄÄÄÄ Q
del ta
Ä xÄ
P H
di tion
if _
ti le
sock et
NU M_
ge st
L Ä
LE D
BO O
ha s
meth o
si _
ex ception
un cÄ
P Ä
A RE
EN TR
BU F
tit le
ar g_
s cale
on t_
p lay
_f rom_
able _
s in
Äd st
m in_
n v
A ll
r c_
Äp riv
c v
for _
su c
Stru ct
ar r
T ex
G ener
ÄÄÄÄ fprintf
p dev
8 02
int s
sen t
f ont
bu s
ex ist
V E_
B LOCK
head er_
RI TE
_po ol
_ptr Ä
ÄÄÄÄÄÄÄÄÄÄÄÄÄÄÄÄÄÄÄÄÄÄÄÄ ifÄ
sq l_
Ä un
ÄÄÄÄÄÄ if
Ex t
pu b
us b_
I TE
h y
ar k
S A
ARRA Y
ÄÄ s
S to
_p r
Sy stem
u intÄ
t d
no Ä
ext ension
acti ve_
ex tra
set ting
I ST
sq lite
mo du
ato m
8 6
r l
byte sÄ
ÄÄÄÄ size_tÄ
orig in
_STAT E_
st mt
Ver sion
ÄÄ std
h ex
script or
in stance
Iter ator
r x
s s_
ÄÄÄÄÄÄÄÄ constÄ
Äi mage
_S t
lin k_
si d
Di re
g_return_val_ if_failÄ
fo undÄ
Col umn
C ap
ti al
p end
ic s
tl s_
Fil ter
S rc
ite mÄ
fil ter_
Äs q
_p ack
Reg ist
" \n
Q UE
r ing
ch un
f g
mutex_ unlock
C M
L in
int ÄÄ
ÄC ON
_C ALL
_f rame
i ss
'Ä '
BUFF ER
Set tings
do ut
Option s
Ä MAX
f ull
ms gÄ
P riv
u Ä
ro t
d er
Conne ction
tra ce
clas s_
quer y_
m it
F ileÄ
u t_
Äc md
n tÄ
"%s :Ä
d f
read Ä
ret valÄ
p ng_ptr
cre en
z ero
De sc
Ar ra
PF N
AS T_
op t_
Ä event
" (
set up
\ r
Äw x
returnÄ FALSE
" in
G TH
byte s_
to ol
ab el
sn d_
re g_
_S P
_S Y
P ri
bo ard
m g
_S C
X ML
g no
ver bo
Ä Y
pre t_
pro g
inter pret_
Äi tÄ
W RITE
allo cÄ
TY _
: "
Ä lenÄ
Ite mÄ
n r
u mp
su re
ma in_
mode l_
d l
il dÄ
co utÄ
i pÄ
u le
M T_
name s
re lease
par se_
uint16 _tÄ
D lg
g l_
lin es
loc ation
he ap
or i
ÄG ST_
MP LE
re p
ck _
TR AN
qu o
s 2
S w
Ä addr
Ä filename
"F aile
n s_
LIN E_
,Ä "
_p ort
PFN GL
head Ä
file s
:Ä "Ä
e le
pa ce
ai lable
g_return_ if_failÄ
G I
" .
endif ÄÄÄÄ
OBJ ECT_
t m
Text ure
Que ue
Äconst ÄÄ
r q
UN D
_C OL
fir stÄ
ini tializ
_P AR
str cpy
== ==
arg ument
Äfaile d
G e
op ts
M od
las sÄ
ch ip
R el
W Ä
app end_
_f unc_
LIN E
B ar
do main
ss l
WIN DO
O r
str a
ma il
" Error
C C
color _
Sa mple
B L
CO L
al low
R D
b c
Z _
0000 0000
FLA G_
Ä max_
Quer y
ok Ä
ÄÄÄÄÄÄÄÄÄÄÄÄÄÄÄÄÄÄÄÄÄÄÄÄÄÄÄÄÄÄÄÄ ÄÄ
DB G
ÄÄÄÄ switchÄ
bo x_
En v
sa ve_
n on
ent er
trans action
MA P
col um
regist er
u ff
_c li
S W
al ign
WARN ING
MS G_
ÄIm Gui
* =
Y P
ME NU
N V
Ptr Ä
ÄÄÄÄreturnÄ false
D U
remo ve_
C lose
ÄÄ returnÄ0
g lobal
met adata
h igh
Äm alloc
i str
in dÄ
R GB
intÄ n
tot al_
intÄ ret
LOC K_
n def
ad Ä
g st_
ge _
version Ä
Byte s
T ab
r k
base _
Äc info
V O
H TT
uldÄ notÄ
Hand ler
ÄÄÄÄ elseÄ
7 7
Äc pu
L Y
j _
ÄÄÄÄÄÄÄÄ m_
g i
Ass ert
di o_
de tail
g ame
e f
Z E_
In i
ro p
ÄÄÄÄÄÄ return
text ure
pa y
Ä entry
r ate
ce ive
j son_
ÄÄ elseÄifÄ
ÄÄÄÄÄÄÄÄÄÄÄÄÄÄÄÄÄÄÄÄÄÄÄÄÄÄÄÄÄÄÄÄ ÄÄÄÄÄÄÄÄÄÄÄÄÄÄÄÄ
' /
ÄÄÄÄÄÄÄÄÄÄÄÄÄÄÄÄÄÄÄÄÄÄÄÄÄÄÄÄÄÄÄÄ ÄÄÄ
format Ä
S L
De stroy
UN K
P RI
ÄÄÄÄÄÄ else
it erÄ
Mo dule
0 .
quen ce
Äf ail
Add r
bo dy
N AL
end l
b e_
ÄÄÄÄ default
arg Ä
sc i
lef tÄ
s ing
W a
b g
L abel
dir _
ÄÄÄÄÄÄÄÄÄÄÄÄ if
e ature
st orage
Äc p
tran sp
cont ent
ÄÄÄÄ t
ÄÄÄÄ n
g boolean
col Ä
interpret_ cast
DAT A_
x p
if ndef
Ta sk
lob al_
% 02
tmp _
M y
s lo
build er
I O_
pro c
"% sÄ
Cur sor
sh ort
b y_
le g
S tack
LEN GTH
E T_
reg ion
message _
3 3
50 9
r yp
le ction
Äs k
g in_
Ä en
F ir
tar get_
ri pt
Ä mem
po inter
comp are
ENO MEM
ch o
EC T
sp Ä
d k
Äth eÄ
Flag s
5 Ä
v m_
g char
bu ild_
re sponse
_S et
d t
es sion
regist er_
key s
ÄÄ ASSERT_
A M_
ab c
RE AD_
w pa
AN _
Ä double
Bo ol
r id
ch ain
Ä yÄ
or yÄ
reg s
ÄH 5
Ä unsignedÄintÄ
ÄÄÄÄ elseÄÄÄÄ
C an
g x_
c lo
CO DE_
comp lete
Är c
Par ams
end er
Äre tÄ
_po int
T im
Buff erÄ
g ui
sh _
if f
T X
err _
_f ree_
code c
Res ultÄ
Ä next
image _
ho st_
IN F
t m_
AS H
ÄÄintÄ i
ÄÄÄÄ printf
cod er
ite ms
u 16
m c
_STR ING
.. .
D F
lig ht
de dÄ
e ff
du mp_
Length Ä
in sn
t f
fe ren
U _
.0 Ä
G raph
Äm y
wor dÄ
" N
\"%s \"
M AR
Äp ng_
flag Ä
ag ick
Ex ten
Un i
Äs n
pro cess
c m_
Äp age
> "
Ä mp
SQ L
ou se
Ex ec
sk b
v s_
" %s"
I 2
TR ACE
Äg l
p op
Ed ge
o s_
dif f
stan ceÄ
N T
Äin put
ver tex
C md
o id
2 2
64 Ä
sp aceÄ
_C L
r d_
stan t
wor k_
f d_
Tra ck
bo t
Ac tive
an t_
OR T_
_b ase
res er
S ec
He ad
la stÄ
Ä at
Flag sÄ
G F_
VER SION
ÄÄÄÄreturnÄ NULL
a "
ev entÄ
9 0
wr it
ÄÄÄÄ b
sup por
g_ free
Ä ca
CH _
M u
map p
sock et_
priv Ä
Sp ec
co l_
P S
S te
RES UL
Äf d
Ma in
stru ction
field s
ref _
Ä row
j ect
e s_
en sor
_par ams
Meth od
st y
6 Ä
con ver
a k
Di alog
N C
ation s
Le ft
Ägo toÄ
st ep
In st
cel l
de re
mo ve_
Ä2 0
no _
M Ä
Po ol
a sÄ
ÄÄÄÄ D
u res
acti v
_b it
g s
sq l
num berÄ
8 8
store _
ÄÄÄÄ S
MA T_
res ol
So cket
BU TT
ÄÄÄÄ free
n p
Ä returnÄ0
N Ä
t al
UT F
ru le
g c
re ate_
ver se
MS G
i se
de _
% [
th row
ang u
an _
ÄÄÄÄÄÄÄÄÄÄÄÄÄÄÄÄÄÄÄÄÄÄÄÄÄÄÄÄÄÄÄÄ ÄÄÄÄÄÄÄÄÄÄÄÄ
ju st
in ser
Ä format
ÄÄÄÄ assert
ta g_
P y_
A F
% x
I con
Ä% sÄ
STR ING
App end
O S
x x
mutex_ lock
Ä string
li k
angu age
ct x_
OR T
hash Ä
se l
OP EN
OR E_
Re lease
Äs z
re gÄ
OR M
Re move
m t_
IN DE
FI G_
Ä2 55
d at
ord s
O UR
OP T_
pth read_
BIT S
B Ä
for m_
st er_
UP POR
IC E_
Ä lo
Ed it
" ,
an el
INVAL ID
ÄÄÄÄ autoÄ
_c pu
Id x
Trans form
l yÄ
E lem
str casecmp
Ret urn
# #
ÄÄÄÄÄÄÄÄreturnÄ false
che ma
comm on
AS T
AP P
cn tÄ
2 3
re ply
D ate
Är ange
addr _
pre fix
r vÄ
ÄÄÄÄ constÄcharÄ
AR T
float Ä
b io
ER Ä
so ap
AR _
N orm
N e
ÄGT K_
D S
En tryÄ
el y
IN IT
Äp ort
L ink
In te
f lush
ss l_
Sa ve
ÄÄÄÄÄÄ intÄ
Sy mbol
ph y
Disp lay
" p
gtk_ widget_
ÄÄÄÄÄÄÄÄÄÄÄÄÄÄÄÄÄÄÄÄÄÄÄÄ ÄÄÄÄÄÄÄ
o m
SI ON_
Äcon fig
Äi o
re v
che s
ÄÄÄÄ int
UL TI
_func_ _
u seÄ
U AL
EV ENT_
ta ch
Gtk Tree
Äb it
an k
AC K_
g intÄ
unsignedÄ int
AS E_
A li
dis able
se ek
h tÄ
se ctor
C I
UNU SED
Äf p
pl an
Au dio
DEFAUL T_
comm and_
L ong
Gtk WidgetÄ
v 4
W r
] Ä
ÄÄÄÄÄÄÄÄÄÄÄÄÄÄÄÄ ÄÄÄÄifÄ
s li
NE L
ÄÄEXPECT_ EQ
filename Ä
File Name
si t
block Ä
VER IF
con f_
min Ä
Fir st
LI B
pl y_
fo re
_p er
BO OL
t v
Arra yÄ
ÄÄÄÄ char
type s
"C an
9 6
fi xÄ
ÄÄÄÄreturnÄ true
ta gÄ
'%s '
N G_
no te
EX T_
m m_
Ä0x 1
Regist er
T uple
ÄÄÄÄ h
mon itor
I X
c ard
Ä4 Ä
Ä color
O M
int64 _tÄ
I G_
G lobal
pro p
ÄÄÄÄreturnÄ 1
P layer
LE M
Ä off
ÄÄÄÄÄÄÄÄÄÄÄÄ forÄ
s ur
ÄÄ f
MA N
vi r
ter min
Äw or
lo gÄ
_p Ä
T op
S ign
alo g_
mem ory_
Ä attr
n b
fo rea
coun ter
Ä text
v er_
W OR
S ession
d bus_
cur r
b y
F REE
H as
fil l
str ide
sy stem
message Ä
_b e
Ä0x 3
Äi p
with _
ide nt
To ol
i stÄ
cal l_
ÄÄÄÄÄÄÄÄÄÄÄÄÄÄÄÄÄÄÄÄÄÄÄÄÄÄÄÄÄÄÄÄ ÄÄÄÄÄÄÄÄÄÄ
node s
Exten sion
tim er_
de nt
c p_
\ "Ä
_flag sÄ
enable d
S i
RO W
l s_
V M
lay out
A S_
w er
di ct_
ÄÄÄÄÄÄÄÄ f
obj Ä
Ä MAX_
Äcur rent
defin eÄ
F actor
m id
en _
x ml_
ord er_
me _
ar _
Ä old
Ä uint32_tÄ
i m_
! "
PU T_
Ä dir
b d
staticÄ void
4 8
a ren
i ro
s ca
p w
ter m
EX IT_
G D
C UR
B its
I o
IF T
CO MP
Ä me
Mo ve
let te
vide o
add ressÄ
l x
ce pt
arra yÄ
Än o
A Ä
C ell
re s_
dr v
AR T_
Lay er
Äre q
'/ '
IG H
w ard
Äcon text
C F
t w
e p_
ou ble
handle _
PR INT
_CHEC K
mp Ä
un ref
Ä ne
G ame
at ter
ret val
_c b
clas sÄ
RETUR N
F X
N T_
FI EL
ie sÄ
ÄÄÄ returnÄ
M D_
P ort
dn s_
pc i_
em it_
tr l
TEX T_
can cel
en e
view _
def ine
c iph
ÄÄ _
yp h
BU S_
Äde st
Ä iter
bo ok
in valid
show _
an o
ap i
Ä last
la ce
mem ber
v l
wa it_
F o
head erÄ
Ä0x 7
pp er
pert y_
la yÄ
per ties
us b
Con tain
D MA
spin_ unlock
ar y_
Ät arget
v erÄ
d ate
' .
h p
ator Ä
( %s
Ä table
Äcont inue
modu le_
path _
Äto ken
x y_
Äpa rent
VI E
open _
moun t
P I_
fe ature
Pa rent
staticÄ voidÄÄ
Äop t
ÄÄ else
1 .
sh o
o sÄ
yp e
re spon
" B
sy s_
G EN
he re
F T
OBJEC T
_p ut
en code
ÄS C
v olume
u 8Ä
disp lay_
raw _
ic al
Ä status
par t
core _
sh ortÄ
O ver
tr ace_
d c
it ch
com bo
inter p
p b
res our
ÄÄÄÄÄÄÄÄ std
" b
Len Ä
ifi ed
lik ely
ÄÄÄÄ EXPECT_
gen _
R ender
arg sÄ
co m_
w sg
vari able
S S_
O T
" \t
G U
re po
P E
ÄÄÄÄÄÄÄÄ whileÄ
" r
Bo und
ÄconstÄ char
_par se_
qu e_
C lear
x 2
P K
s sÄ
C ALL
S ho
a ve
butt on_
unsigne d
AI LED
S UCCESS
de code
th isÄ
Ä height
w l
de lay
W ar
Re source
Än gx_
F P_
St ar
ch ild_
TH _
d ma
Ä MA
ex tr
Po sÄ
B in
Oper and
U SER
_p rint
Error Ä
U p
Äp s
an Ä
3 6
] "
stat Ä
id s
ab s
ÄÄÄÄ retÄ
f inish
Äg roup
err up
I M
debu g_
de stro
gotoÄ error
arg cÄ
Äend l
group _
a v_
d st_
ATTR I
_ to
g_object_ unrefÄ
2 "
MEM OR
sh ad
ÄÄÄÄÄÄ p
ti ck
ra m
_c lose
las s_
mu x
w al
Ä ato
sp ace_
gl ad_
option sÄ
comm andÄ
C K
I mpl
AN GE
Ä net
z end_
t b
a sync_
S TE
fo c
sk ip
Rec ord
P oly
p 2
form ation
glad_ gl
time stamp
or ity
q l
n l
Äh andle
Cont ent
Ä ID
g d
tr Ä
la sh
ÄÄ switchÄ
n er_
al t
" D
T ER_
e st
Ä1 000
VAL UE_
_S ER
um Ä
c i_
ÄÄ size_tÄ
in c
di c
Äp r
lic ation
se cÄ
Ä idx
H el
n ullptr
L U
pa rent_
use dÄ
o urce
Äa v
in itÄ
lf w
et ch
vi sible
Ä0x FF
strn cmp
Ä si
war ning
ker nel
\r \n"
c ert
NG X_
attr _
i2 c_
p v
P T_
% p
f ace_
ser vi
Sc ript
lew Info
8 x
FAIL URE
lic y
s 1
EN ABLE
ig no
Ä2 4
Ä map
il t
ma c_
" Co
c pÄ
_e a
_par am
a mÄ
G RO
_F LA
G S
P T
Ä3 Ä
NO DE_
re size
de d_
UNK NO
B R
ad dÄ
Me sh
utf 8
' -
o us
C Ä
chun k_
Ä ev
var s
Äpar ams
Äd y
" abc
P ack
_ E
Ä IN
ed tls_
AL I
ref s
p f
Au to
m ul
au dio
Äout put
im g
_po sÄ
olu tion
returnÄ TRUE
is l_
C tx
s er_
re qui
sele c
P RE
u 64
pre vÄ
ÄÄÄÄ this
TIM E_
g f_
sr cÄ
Ä sizeÄ
action Ä
M agick
jo b_
"Faile dÄtoÄ
_ len
fo o
vide o_
P acket
D own
sele cted
S R
F_ IN
Ä an
_SE T_
" un
mat rix
ÄÄÄÄÄÄÄÄÄ ifÄ
tr y_
ÄÄÄÄÄÄÄÄÄÄÄÄ return
ADD R
er ase
Arg ument
ate dÄ
0 1
AL IG
g lobal_
ac t_
ma ster
color Ä
le ep
M ouse
lo c_
comp le
Pro c
temp Ä
n i
Äs w
atch _
ÄÄÄÄ w
Ä if
O UT_
TYPE Ä
ÄÄ return
no t_
U Int
se dÄ
Ä set
Äw rite
ÄÄÄÄÄÄÄÄÄÄÄÄÄÄÄÄÄÄÄÄÄÄÄÄÄÄÄÄÄÄÄÄ ÄÄÄÄÄÄÄÄÄÄÄÄÄÄÄÄÄÄÄÄÄÄÄÄÄÄÄÄÄÄÄÄ
4 4
Äf rom
d x
u i_
ow ner
mar k_
c ul
Q L
ed it
ma g
sw ap
f b
NO DE
ac c
ME TH
G st
S cale
B IN
0000 00
D ouble
S up
Äso urce
engin e
I C_
av ail
p en
Un it
Sto re
for _ea
OC KE
ALL OC
\n \t
ro l
uc cess
frame _
oper ator
ÄS tr
Ä unsignedÄ
ableÄ toÄ
o th
ST D_
sy ste
Enable d
r y
Ä hash
bit sÄ
O rd
ing "
sp lit
ctr l
In sert
v is
off Ä
} "
Ro ot
H P
25 5
rec ord
colum n_
window _
mi c_
Te mp
val s
Co ord
cm dÄ
acti veÄ
c b_
a h
ÄÄÄÄ r
In valid
t reeÄ
RI GH
expec ted
ol dÄ
out putÄ
Äm s
Ä le
m tÄ
_STAT US_
ar dÄ
U D
u ti
ÄÄÄÄ F
a a
T ri
lin en
f name
N AME_
o ther
M L_
fi x_
N ull
wor d_
ÄÄÄÄÄÄÄÄ elseÄifÄ
GT K
f aceÄ
aliz e
p lugin
oper and
handle Ä
ÄÄÄÄÄÄÄÄÄÄÄÄÄÄÄÄÄÄÄÄÄÄÄÄÄÄÄÄ Ä
8 7
rea son
En gin
In ternal
2 D
di sk
tr i
mo v
sele ct
S creen
conne ct_
ÄÄÄÄÄ ifÄ
k rb
ide o
CODE Ä
ch a
G IN
m k
th is_
ÄÄÄÄÄÄ g_
Ä1 02
3 5
sele ct_
em it
ÄÄÄÄÄÄÄÄ retÄ
Äm on
re port
printf Ä
pa rentÄ
TL S_
FI X
" Th
intern al_
cp l_
ÄÄ c
M T
Äk Ä
METH O
p tÄ
_ a
temp l
ÄC H
structÄ sock
St orage
m f
ca iro
2 6
Ä do
S can
fil l_
clu de
SC M_
s ort
B ind
Ä ext
Äm at
P op
cp yÄ
open Ä
_ n
su b_
r adi
U s
ed itor
end ifÄ
token Ä
g er_
en ame
co ok
dig it
I P_
H D
ÄÄÄÄ ngx_
Ä_ _pyx_
Ä exp
_ v
Äcur rent_
w are
Äs u
I MA
ÄÄÄÄÄÄÄÄÄÄÄÄÄÄÄÄÄÄÄÄÄÄÄÄÄÄÄÄÄÄÄÄ ÄÄÄÄÄ
at al
l m
lock Ä
track er
bu cket
ÄG L_
to pÄ
inde nt
%d ,Ä
_f reeÄ
= Ä%
Ä2 56
d v
s ched
Äst rerror
ÄÄÄÄ v
f romÄ
z er
DEC REF
num er
L ONG
res sed
Ä ad
pe er
Äw ith
BUTT ON
pay load
" g
Path Ä
ba si
Äd b
ÄÄÄ intÄ
Re ply
ÄÄ D
16 Ä
Se arch
g round
dev _priv
av ailable
pert yÄ
ta b_
ver ti
ÄG L
reser ve
Be gin
st dout
7 _
ÄÄÄÄÄÄÄÄÄÄÄÄÄÄÄÄÄÄÄÄÄÄÄÄ Ä
RE AM
sign ature
al ig
_S UB
Äs d
. 2
N one
Re al
Ä ht
_c reate
de scription
confi gÄ
lin kÄ
um entÄ
ÄÄ for
iz e
self Ä
channel _
Ä sÄ
m anager
al g
ME SS
Co re
e mp
up Ä
0 "
T er
p attern
th resh
co ver
F alse
req _
t g
p y
V Ä
at t
g erÄ
al y
G Node
iter al
Äs rc_
De st
S pace
sh ift
D B_
ÄÄÄÄ staticÄ
IN IT_
channel s
p layer
802 11_
E M
ap p_
BU G_
" w
g tk_tree_
ÄintÄ n
ÄÄÄÄÄÄ constÄ
Äp ix
Ä ro
pro cess_
mat ri
Äp _
cal ar
now nÄ
dere r
f e_
W ra
STAT E_
RETUR N_
fprintf Ä
ARG S
Mu tex
V ideo
Reg ion
Ä log
Time Ä
tr ig
uint64 _t
M eta
W ord
window Ä
Ä1 5
Äx ml
_P TR
" ÄÄÄÄÄÄ
Ä tag
Ä0x 8
__pyx_ t_
ÄÄ voidÄ
! \n"
UN I
af k
r ad
us erÄ
EC _
remo te
MA P_
F D
I terÄ
s /
Off setÄ
WR ITE_
ÄÄ C
ÄÄÄÄÄÄÄÄ g_
size_tÄ iÄ
ser vice
var _
en Ä
DEFAUL T
w m
_P yx_
d ay
col s
ca _
O O
ÄÄÄÄÄÄÄÄÄÄÄÄ continue
Ä O_
l ta
10 24
FI L
uni que_
Äa Ä
G P
so le
i i
or dÄ
in lineÄ
ex t_
L im
sum Ä
re sp
or iz
ÄÄ constÄcharÄ
D WORD
> \n"
v s
char _
seg ment
FUNC TION
ho ok
inter face
Ä caseÄ
ÄG F_
ÄÄÄÄ l
byte Ä
6 6
** **
E LEM
Change d
v 2
ve c_
Net work
di ces
ch ine
sp i
on ent
sto m
time outÄ
Tim er
Q StringÄ
Tra ce
ne d
0 'Ä
di t_
PAR AM
2 00
Ä list_
su f
A sync
an dom
pro xy
LA B
ma ke
AN CE
f w
tr _
ome try
re ge
i ve_
LE Ä
mo d_
print k
MA G
stat ic
Äm u
al le
trans form
s core
lim itÄ
an y
we ight
A UT
ÄÄÄÄ x
low er
UN T
S L_
intÄ argc
lu gin_
' 0'
H ost
word s
p n
Ästr cmp
change d
U LL
ÄÄÄÄÄÄÄÄ m
i mpl
Wor k
faile d
Vari able
v as
S_ P
t uple
ser ializ
Äf mt
V olume
ex e
ÄÄÄÄ voidÄ
Äb ack
b it_
ÄC O
E D_
Pro to
cur rentÄ
F ail
ca p_
Wa it
P lay
re store
Re set
sp li
par ameter
AC CE
Ä code
E Ä
str cat
( "
'\ \
_c allback
c "
X X
G C
returnÄ err
attr Ä
ÄÄÄÄÄÄÄÄ c
d ma_
sc r
Char Ä
US H
P UT
act er
ne ed
Arg s
S pe
Ser vice
ÄÄÄÄÄÄÄÄÄÄÄÄÄÄÄÄÄÄÄÄÄÄÄÄÄÄÄÄÄÄÄÄ ÄÄÄÄÄÄÄÄÄÄÄÄÄÄ
len d
( %d
P ass
ure _
dev_ err
Äpar am
m_ n
ÄI P
group Ä
Ä el
7 Ä
inter val
N ORM
ac ity
m ime
ÄÄ autoÄ
I mp
Ä AR
Se ction
ul lÄ
SS L
H o
Äg st_
if orm
amil y
cryp to_
Äop er
_CO MP
Typ e_
que ueÄ
S k
feren ce
num ber_
ca mer
Äp er
Mode Ä
B AD
un likely
ke d
fa ctor
S ha
D ist
R UN
suc cess
" f
I Ä
UNKNO WN
returnÄ result
c le
S N
E P
A IN
di alog_
Pro gram
ch ildÄ
ÄÄÄÄÄÄÄÄ s
reque stÄ
in e_
ÄÄÄÄÄÄÄÄ _
ÄÄÄÄ bool
Ini tializ
AT H_
ori g_
Ä old_
Äb Ä
x "
O C_
Äi te
po st
FLO AT_
INF O_
Ev entÄ
cach eÄ
R ight
_c lear
T AG
c er
F C
hw _
cli entÄ
gotoÄ err
w n
n il
R Ä
w i
ON LY
Ä test
search _
Se q
ha sÄ
M U
Ä ss
Ä_ _func__
STAT US
lu ster
i b_
Au th
ctx t
DEV ICE_
L D
vi rt
Point s
fiel dÄ
inser t_
structÄ b
Par ser
_STAT US
j ec
point s
DI S_
l r
Strea mÄ
Ästr dup
cpu _
' :
Inter face
I F_
_F AIL
on ly
metho d_
CL AS
Ä object
p 1
sour ceÄ
NU MB
d river
ho me
'. '
hel p
f uncÄ
dire ctor
stan ce_
d um
at um
Äbool Ä
ÄÄ m
mat ch_
ÄÄÄÄÄÄÄÄÄÄÄÄÄÄÄÄ if
DI SP
TR L
sen sor
= %
er nel
name "
y ear
U P_
page _
dr m_
E F
sen si
comp ute
Äf ree
VO ID
W A
"Ä "
_pr int_
di st
ar m
J o
conne ctÄ
par am_
pre v_
F R
at ures
Exp ression
j pe
F eature
Ä S_
_f unc
ro otÄ
S ig
comm ent
on tÄ
k afk
3 f
" ,Ä
Äre f
p li
off set_
N S
LE V
. Ä
A tom
e er
LI C
stat s_
Ä mask
Fi lename
T ensor
Äh ost
P ix
c s_
to gg
cont ent_
U se
verbo se
con v
P lugin
attr s
" --
MA C
add ing
obj _
d ra
rec v
auth _
Äp t
Äre c
1 .0
hash_ table_
" M
mer ge
pk t
er_ get_
la ck
ip e_
write Ä
mo te
list en
Flag s_
"%s :
constÄ gcharÄ
LE C
f x
" Re
or d_
Doc ument
end ing
la g_
FOR MAT_
Ä stream
Ä8 Ä
root_ child
and id
g ress
Äbyte s
encod ing
HTT P
il ity
read er
format _
x 1
F ix
P ush
Ac cess
INDE X
an tÄ
an us_
FI G
lua _St
Inte ger
D L
ÄÄÄÄÄÄ g
Är Ä
2 8
GL istÄ
u til
sh if
comm it
u v
const_ iterator
AS H_
d riv
p m
Sele ction
Äc b
" #
action _
ex it_
c la
e b
constÄ intÄ
Ex it
writ ten
P lan
P P
Äm _p
" \"
VERIF Y
_par se
mar y
De code
Ä 64
fd s
7 8
i ch
inte ger
J son
_P RE
ca ps
k free
Äf unction
Ä% dÄ
Äre quest
k nown
M Y
Engin e
ENT ER
r sp
F_IN ET
s a_
F W
expec tedÄ
Co m
ur b
_CALL BACK
Äf romÄ
el l_
ATTRI BU
Äpo sÄ
C am
V T
di a
p x
ÄÄÄÄ double
un it_
] ,
session _
T ile
s_ to_
AC TI
menu _
Ä errno
WINDO W
ct l_
ure Ä
O ri
NO TI
elem ent_
_F OR
is Empty
tx t
sh e
ma inÄ
put s
ac cess
De scriptor
ÄÄÄÄÄÄÄÄ n
Ä label
NE W
v a
Än ow
_C R
ate d_
cryp t
l t
t cp
ÄÄÄÄ A
se q_
Ä message
lay er_
V ER_
Ä ar
si mple
l c
temp _
Ma ke
e mpt
dire ctory
rig htÄ
lay out_
cur Ä
f unc_
in ation
D im
Äsq lite
" A
Ä s_
O F_
AC KE
ÄG ET_
u int_
Se g
ÄG D
boolean Ä
ad just
use d_
s cope
ENTR Y
endif ÄÄ
tc g_
em itÄ
sc al
MAG IC
GE rror
P rintf
ÄÄÄÄÄÄÄÄÄÄÄÄ p
Se tÄ
m v
S O
_p ri
to p_
C u
ÄÄÄÄÄÄÄÄ fprintf
ÄM O
Par t
change dÄ
for ce
EQ UAL
shared _ptr
_path Ä
temp late
all Ä
hw nd
De pth
Bo dy
e qual
C lassÄ
3 d
int 16
comp o
Ät x
_c md
In struction
_f ind_
BOO ST_
ÄÄÄÄ z
ay load
Ord er
Ä user
ÄS IG
TRAN S
: \n"
BUFF ER_
if yÄ
Con stant
F ull
l w
metho dÄ
Tr an
UR E_
con ta
" G
ÄÄ d
as sign
ato mic_
w atch
6 8
ÄÄÄÄÄÄÄÄ for
c bÄ
ma j
NE T_
ÄÄG st
ÄÄÄÄÄÄÄÄÄÄÄÄ else
vid er
POR T_
L C
u al_
er a
lookup _
RE Q
'- '
ÄÄÄÄÄÄÄÄ printf
UL ONG
VI DE
Value s
s_ tÄ
Ä__ ecere
r g
" can
define dÄ
exec ute
2_ Ä
Äm b
int errup
v 1
if ie
FI _
_c reate_
Äser ver
IN TE
di gest
DE LE
E K
r w
referen ce
" GL_
O W
_flag s
case Ä0
u x
Äcon ne
ifdef ÄH
im um
Äcon n
Z ER
I f
ATI ON_
i cÄ
ÄO P_
3 8
F AILED
int32 _t
wr iter
an ti
LEV EL
rt l
LI M
Ästr chr
l b
ro ute
r gb
Äp rintf
ing s
ÄG FP_
AR D
Comp are
Är un
DO WN
clear _
Code Ä
ific ation
2 7
Äato i
Ä open
Äp ack
si st
STAT US_
stru ct_
l k_
c g
Obje ct_
bu ilt
Äde lta
Table Ä
s_ get_
P h
NO T
PRO P_
AT AL
ÄÄÄÄ a
au x
ÄM S
se ss
_po sition
Read er
m anag
FI R
H AVE_
st rerror
B B
au dio_
oo m
3 1
OL D
ÄÄÄÄÄÄÄÄ C
Loc ation
_f d
OBJ _
t un
syste m_
j e
Äso ck
N EC
ÄÄÄÄP y_
War ning
Äpro c
U 32
m i_
Äp sz
mat chÄ
ar ge
lo ur
3 7
stack _
me sh
Num berÄ
Ä ge
fir m
G ER
s che
ct s
Äf open
Ä OP
S _C
Lo op
Sho w
A MP
W in
G_ OBJECTÄ
bit map
si ve
handl er_
B asi
To String
R aw
$ f
con d_
g a
comp ress
er ial
reg istr
ÄÄ double
l n
run _
ÄÄÄÄ re
TR _
t bl
des cÄ
wsg i_
lon e
add ress_
DE SC
Py Err
ar yÄ
pro perty
Äf ind_
%d ,
cli p
Window Ä
Äf unc
LINE_ _
Ä AP
ÄÄÄÄÄÄÄÄ d
ÄP NG_
lef t_
s c_
ÄÄÄÄ T
Un iform
Pa ir
frame Ä
Ä file_
res ource
ÄÄÄÄ ASSERT_
Äo ther
color s
sn ap
attribute s
bo d
Ä env
Ä level
Ä uint8_tÄ
exp ression
block s
par ator
KER NEL
lo bus_
lo op_
ne g
k t
Ä sig
con dÄ
c lock
Tr ue
Width Ä
PL Y
US B
strcmp Ä
ac count
time out_
te am
f lat
head ers
stÄ beÄ
Dire ctory
' %
trans fer
Ä field
m ut
Ä child
li p
Ä doubleÄ
z z
ÄÄ assert
S lot
Ä last_
^ =
Äin put_
r m
servi ce_
WID TH
S el
S calar
an ch
Sh ader
g pu
_p ix
label Ä
my sql_
ri ve
AN D_
ti veÄ
FLO AT
Cli p
S V
U tf
0 _Ä
F Ä
pr _
Sele ct
OK Ä
Wor ld
f ont_
F T_
A b
channel Ä
tar getÄ
M et
Ä0x 4
Po intÄ
compon ent
S _S
f c_
g am
te stÄ
ÄÄÄÄÄÄÄÄÄÄ break
c 2
C PU
sor t_
ip el
t 1
t 2
X Y
_CO M
_ irq
for_ea ch_
ÄÄÄÄ i
mis sion
SIZE Ä
column s
de st_
amil yÄ
r dev
nam ic
ÄPy ObjectÄ
depth Ä
ex tÄ
M ON
TI C
< /
ati ve_
la p
draw _
Ä root
not ify_
ÄÄ 0
cop yÄ
NE T
lua L_
Ä0x 80
ÄÄÄÄ while
IN C
= \"
di v
su sp
inte l_
f er_
_de stroy
f rag
ho stÄ
MA LL
te Ä
M ark
me mÄ
g id
Ke yÄ
FLOAT_ EQ
ren der
d h
UP DAT
W IT
Äc f
ÄÄÄÄ ASSERT_EQ
lua_St ateÄ
D st
2 1
sup er
Sc roll
9 7
s list_
Ali gn
ÄreturnÄ false
Attr ib
F E
ÄÄÄÄÄÄÄÄ charÄ
delete Ä
Äcli ent
hash_ table
ÄÄÄÄ tmp
ut ls_
N on
C ase
Ä local
ÄÄÄÄÄÄÄÄÄÄÄÄÄÄÄÄÄÄÄÄÄÄÄÄÄÄÄÄÄÄÄÄ ÄÄÄÄÄÄÄÄÄÄÄ
nx t_
M ULTI
LO AD
on s
f ra
Ä resultÄ
con stra
ti v
ti le_
Di ct
d _p
re set_
s cÄ
_printf Ä
O L_
ÄF AIL
Än _
on gÄ
src /
b ig
p s_
l 2
me Ä
ÄF ile
TA G_
p in
ÄÄÄÄÄÄÄÄ default
Al pha
N av
re interpret_cast
ÄN G
ÄÄÄÄÄÄÄÄÄÄÄÄÄÄÄÄ caseÄ
sz Ä
Ite ms
H ER
net work
ÄQ String
log_ error
16 _
ptr _
sa mp
TH READ
w ay
W M
SE C
pre vi
ca pt
L P
t s_
Ä AC
ÄÄÄÄreturnÄ ret
_p ortÄ
TR ACE_
ap i_
c 1
enc y
Se quence
Ä lÄ
Äc allback
th _
comp ress_
at chÄ
s ink
_byte s
Äl p
ÄÄÄÄreturnÄ FALSE
_pro to
MO DU
Vec 2
sh ape
Not ify
vi sion
ÄÄÄÄ gl
gno me
mem cmp
b or
ro ut
_SIZE Ä
m_ b
norm al
M EN
ate s
Layout Get
a sci
mp i_
po w
V ATE
v b
/ =
60 50
n t_
Pre fix
Äs cale
Äarg c
char s
B C
goto Äfail
Ä102 4
W nd
m s_
He ap
0 .0
HAND LE
. val
pl yÄ
ed "
n n
re al_
se d_
Ä to_
_f actor
Äb eÄ
m gr
Äm od
in a_
f pÄ
Äs can
z one
up per
Ä first
ÄÄ S
jo in
Ät ar
st age
g h
T he
ÄP RO
.5 f
% %
v c
HEAD ER
option _
T X_
ing le
Äg_ list_
gr id
ÄÄÄÄ j
ÄÄ this
icon _
RE SS
ÄÄÄÄÄÄÄÄÄÄÄÄ intÄ
ÄÄÄÄÄÄÄÄ gotoÄ
scan _
pe ct
un ion
SQ L_
G en
req Ä
OP ER
:Ä %s
Parameter s
Ä valueÄ
" _
m en
'\\ '
': '
tt p
Block Ä
W E
ta ge
a mple
vi si
Norm al
:Ä %d\n"
Ä_ mm_
lo a
C al
su me
_p ixel
Vari ant
_p acket
Ämode l
at er
ÄÄÄÄ uint32_tÄ
NORM AL
session Ä
P ATH
H AL_
A x
Ex tra
ru sh
P L_
Äg pointerÄ
Number Of
1_ Ä
Ä next_
Äc l
ÄÄ elseÄ
ÄÄASSERT_ FLOAT_EQ
re place
SH IFT
' a
sh ut
Ä TYPE_
co ord
stru ctor
Name s
priv ate_
b ra
void ÄS
n ick
G N
mem oryÄ
li ce
debu gÄ
mo use
S ur
strn cpy
ti cal
page Ä
Ä DI
s_ per_
ol l
H ist
ati o
Ä li
con dition
Äc leanup
Äfaile d"
ÄÄÄÄÄÄÄÄÄÄÄÄÄÄÄÄÄÄÄÄ break
_p ort_
lua _push
uti l_
p ipe
ÄÄÄÄ memset
ST D
uint16 _t
Äsa ve
le d_
lon g_
p oly
in putÄ
Äf s
Ä start_
ar Ä
L "
q r
Äc re
handl erÄ
ACH E_
Ch unk
Äp d
h id
buffer s
gra m_
Mon o
Lo okup
con n_
vir on
An im
LO B
i ct
par tition
pl it
RE QUE
= '
ÄÄÄÄÄÄÄÄ free
var Ä
d stÄ
contain er
re ceive
stat _
File s
Re sponse
t p_
rd_ kafk
sp ar
l y_
' ,
ÄÄÄÄÄÄ elseÄifÄ
D X
ini tion
VER SION_
gui __
h u
O b
sa mple_
AR G_
_p op
ator _
Ä options
RESUL T
__ecereNameSpace__ecere__ com_
v f
ÄÄÄÄ memcpy
DB G_
UTF 8
sc roll
Ed itor
do m_
in f
Dis as
e q
AR CH
code c_
X 509
w c
k ind
ÄÄÄÄÄÄÄÄelse ÄÄÄÄÄÄÄÄ
k lass
St ati
DO UB
ti ls
ON G_
pa re
.val a"
Ä tÄ
H T
se quen
Ä ui
Ar ch
sa fe_
VE L_
wh ite
ÄÄÄÄ set
ÄI s
ri de
LOG_ ERR
_C UR
connection _
inode Ä
ref resh
O RE
ne ed_
read y
B AD_
e g
Ä out_
structÄ i
ar t_
Äre interpret_cast
ma sk_
ÄÄÄÄ auto
SS L_
qui re
UPPOR TED
un pack
z e
AS N
w o
de stÄ
mi ss
fil terÄ
LE VEL_
OR I
BU F_
i re
ÄÄÄÄÄÄ std
col lection
JS ON
Äd st_
Änew Ä
L AN
wpa _s
clu ster
spin_unlock _irq
mode lÄ
il er
hdr Ä
R X
u st
pro p_
ÄisÄ notÄ
ÄÄ ASSERT_EQ
nam ic_
expr Ä
A v
_CH AN
sizeof Ä
Priv ateÄ
M ac
bu tÄ
net dev
Th is
label _
Ä endÄ
vi ceÄ
ÄÄÄÄÄÄÄÄÄÄÄÄÄÄÄÄÄÄÄÄÄÄÄÄÄÄÄÄÄÄÄÄ ÄÄÄÄÄÄÄ
STR UC
re main
c leanup
De scription
read yÄ
unk nown
Äp ri
3 9
"Co uldÄnotÄ
re dis
RO M
ro p_
e a
in tr
h al
ateg ory
> >=
ME M_
LIN K
" E
trans l
X ml
TEST_ F
la ce_
ÄÄÄÄ float
_in it_
Te mpl
Äp ng_ptr
alloc ation
Äout put_
Äy y
r '
Priv ate
mapp ing
t sÄ
Z ero
ÄÄ staticÄ
not ify
Äpre v
Val Ä
OC K
In tÄ
ÄE V
qu are
"Can notÄ
"Th eÄ
ren d
_F ALSE
RE CT
Ä header
event s
A A
EN ABLE_
fix ed
Us age
ne ss
Ä def
_c md_
change _
2 c
ÄÄ break
h b_
option s_
" {
bl k_
En dÄ
pl at
Äst ack
Ä view
_S EC
O S_
u uid
E qual
DB us
de te
alo gÄ
we b
destro y_
Äp h
( %
__ecereNameSpace__ecere__ gui__
-------- --------
IN I
dÄ to
me tr
l v
Äth e
( )Ä
T it
Ä read_
LAB EL
D F_
o ol
? "
_c lass
value_ get_
cur r_
ac cess_
m x
_CON TR
EXIT_ FAILURE
p an
EX EC
rt xÄ
_f unction
ad v
ÄÄÄÄ e
mode _
h ide
ÄÄ b
R S
Ästr to
le aseÄ
row sÄ
option Ä
FOR M
DE CL
LOG_ ERROR
Build er
" n
_P RI
GE TÄ
task_ data
Re fÄ
to String
U V
" faile
U SE
comple tion
tot alÄ
k s
m ix
t ingÄ
col le
bje ct
l anguage
sqlite 3_
ptr _t
Äg_strdup Ä
ie ce
unsignedÄintÄ i
vari ant_
UN LOCK
constÄ voidÄ
ÄÄ n
x dr
M app
B ASE_
ÄconstÄ voidÄ
CO D
Pre v
f if
t '
_g lfw
Ä0x f
bar _
ip v
AME TER
B I
matri x_
R en
s size_tÄ
sp tr
Pro p
fre q
AR D_
jpe g_
w s
T OK
Ä Re
RE SP
Sh ape
ÄÄÄÄg tk_
ÄÄÄÄÄÄÄÄÄÄ returnÄ
u idÄ
_ptr _
ifdefÄH AVE_
F oc
ÄÄÄÄÄÄÄÄ switchÄ
BU IL
que stÄ
engin e_
Äis l_
Äre ct
==== ====
Äs up
CO M
H ASH
E_ C
A rea
ÄH P
R ate
ÄÄÄÄÄÄÄÄÄÄÄÄÄÄÄÄ forÄ
Ä check
FIEL D
conver t_
N S_
FF _
Star tÄ
I2 C
po s_
C ert
ord erÄ
di ms
P G
p idÄ
GEN ER
D b
AT OR
ir q_
H igh
T x
MEMOR Y
BO X
OFF SET
r ateÄ
ÄF L
To tal
Uni code
Äp ass
Ä test_
c ent
Äc all
LO T
on d
: %
ÄconstÄ std
si mple_
ser ial
Ästr lenÄ
. 1
ÄS W
Ä1 1
time _tÄ
in al
LO W
Contain er
P ut
el dÄ
VAL ID
ÄÄÄÄÄÄÄÄ b
OP TION
po int_
G F
range _
_C RE
P G_
VI CE
defa ultÄ
k indÄ
ÄÄg lewInfo
Äw r
ÄÄÄÄÄÄÄÄ autoÄ
sa fe
ax is
ÄÄglewInfo Func
Trans action
B ASE
Äp acket
int 8
AN T
_P ER
m "
def g
jec t_
delete _
Image Ä
lo cÄ
s ol
ke ep
oper ation
host name
ab ort
Oper ation
my sql
basi c_
Ä forÄ
CR YP
Änum ber
si te
g_ signal_
Äg_ object_
ÄÄ bool
Ä doc
sele ctor
In formation
comp ile
ÄS TR
mac ro
tail Ä
2 x
second s
Äpo int
a e
w y_
D atum
type "
expec ted_
hi j
tic le
I dent
ip p
Ä for
Äj son_
On ly
AR E_
gp io
m r
a ft
Ä dataÄ
6 5
x 8
ÄÄÄÄ in
mon o_
g reen
DE D
back end
gl_ string
ÄT REE_
Ä es
Äpo sition
the Env
e pÄ
forea ch
ÄStr ing
_C MD_
Ä12 8
En cod
ur l_
or ith
n ano
In stanceÄ
ca leÄ
Ä make_
N ON
Ä typeÄ
__pyx_ v_
De cl
QU ER
er ge
AL O
ha ve_
Fil l
contain er_
C ha
ÄÄ m_
ti al_
rig ht_
selec ted_
l v_
ITE M
Sh ort
m q
fr ont
endif ÄÄÄÄÄÄÄÄ
ha veÄ
R andom
por ted
He ightÄ
f close
Ä vec
sc rol
ÄP ro
to_ string
S C_
ÄS I
si c
se mb
O ne
enable _
row ser
encod er
\n \n"
Lin eÄ
r t_
at ing
ÄÄÄÄelse ÄÄÄÄÄÄ
rp c_
F W_
image Ä
N C_
ÄÄÄÄelse ÄÄÄÄÄÄÄÄ
/ gnome
spe ed
Ä lock
ÄST AT
_ typeÄ
WAR N_
op tÄ
"In validÄ
" no
view Ä
rec v_
wra p
VIE W
thread s
sqlite 3
d_ name
comp ression
pro xy_
" v
se m
Ädi ct
ÄÄreturnÄ true
_p ut_
tran s_
Ä__ LINE__
ur ationÄ
enable dÄ
Ä toÄ
sh ot
in 1
Vi sible
t id
suppor tedÄ
j anus_
ÄÄÄÄÄÄÄÄÄÄÄÄ m_
:Ä %sÄ
i ces
th Ä
p g_
SE D_
defg hij
Ma chine
m dÄ
br id
dire ction
Data base
7 0
c alloc
AC T
TE MP
F aile
- Ä
bu ck
" I
9 15
serv erÄ
H ttp
" :
Basi c
a f_
FOR MAT
lo or
OUR CE_
u32 Ä
error s
K ind
R ot
9 Ä
4 5
r and
Äg it_
entr opy
io c
on o
file_ name
Si mple
3 "
li b_
Äf n
RE MO
_par ameter
on lyÄ
S UB
ÄÄÄÄÄÄÄÄ structÄ
UINT 32
spe cÄ
is c
UR L
U ST
l ang
Äw a
T ick
LI KE
AN T_
"r "
En code
C B
ÄÄg tk_
ÄNG X_
H AP
WIN 32
ÄQ t
Äw e
b n
f un
LA BE
addr _in
re c_
KER N_
Con st
Är t
C or
dp y
" No
Äd w
m all
lock_ irq
DI O
t yÄ
ÄP o
_re c
t ure
it u
_p h
ÄÄÄÄ_ test_
f "
SI ZE_
Control ler
_C LO
_pro cess_
Äm atch
De c
Bin ary
Äc reate
at tach
typ ename
bound s
exist s
REG IST
loc alÄ
ÄGFP_ KERNEL
Äp c
di e
ÄÄ char
remo te_
ED TLS_
TIME OUT
MAR K
C re
pro c_
e qu
T OP
sk ip_
Äa _
ment s
Cam era
Ä defined
] \n"
Är hs
shad ow
f ol
PO INT
po intÄ
Sy nc
ÄÄÄÄ out
MAX Ä
LABE L_
Ä expr
utf 8_
al t_
Äpre fix
z ip
N I
p c_
Li st_
et ch_
G RA
_CH AR
Äc ryp
warn ingÄ
Add ressÄ
l dÄ
r n
aren a
re port_
intÄ err
Elem entÄ
sub str
Dis able
" d
Z STD_
Ä indexÄ
L at
boo st
D A
ÄM B
T L_
Äp x
Ä nameÄ
_C LI
uni que
" ÄÄÄ
En tity
AR B
LOG_ DEBUG
Pro xy
arch ive_
W h
con nÄ
io v
con cat
ul ar
en ch
O VER
sp an
en tic
UN C_
OP Y
v ent
s ame
We b
ra de
Äp i
Set ting
detail s
Äso ur
GError Ä
de sk
1 2_
b h
LOC AL
Ä void
ÄÄÄÄÄÄÄÄ Q
run time
ie ee
contain s
ÄÄÄÄÄÄ structÄ
ÄG tk
" ÄÄÄÄÄÄÄÄ
go _
G l
U ID
Ä e_
5 12
Ä of
ph y_
A K
' A
4 2
krb 5_
Sy s
Ä0x FFFF
Ex ist
TUR E_
spin_ lock_irq
p data
Ä E_
Ä unsignedÄcharÄ
pack et_
tr unc
GRO UP
ur iÄ
to mÄ
sty le_
o g
fi g_
"abc defghij
U rl
w char
DI O_
1 0Ä
ÄÄÄÄ X
igh t_
Lim it
i mple
li sh
i tr
MAT CH
share d_
_CO DE
g 2
ÄreturnÄ NULL
" \
Äv Ä
as m_
ÄÄÄÄÄÄÄÄreturnÄ true
element s
ERROR Ä
SD L_
0 8
gotoÄ done
_c an
IT ER
SQL ITE_
Äi m
r ont
connection Ä
9 5
de l_
ÄÄG ST_
i rc
le dÄ
Me dia
CLAS SÄ
n m
ap r_
ÄÄÄÄÄÄÄÄreturnÄ 1
AU TH
. *
file "
Äa j
_ count
ne igh
_de bug
pro perty_
TA IN
resol ve
l erÄ
Äa s
" T
ÄÄÄÄ B
ÄS QL
C trl
_b y_
Ä right
Äv a_
t up
Äbuf Ä
Äm y_
con vert
ÄÄÄÄ aj
Tit le
x m
l id
SI _
Äse q
FLAG S_
E mit
un def
E G
= "
fs 2_
Ä DE
L ight
di sc
ic ro
c tedÄ
C T_
di an
app endÄ
ÄÄÄÄÄÄÄÄ elseÄ
Ä head
RE AM_
D P
si s
P in
comm it_
G LE
g pointerÄ
priv ate
A MPLE
Äfaile dÄ
x l
4 3
Check ed
LE FT
Äcur _
p at
token _
Ä countÄ
h 2
12 34
Äcur r
mb edtls_
for mÄ
v as_
ro und_
EN TI
ff ect
B IT_
BU S
arg in
ang leÄ
Comp onent
Ä session
o lean
d s_
en vÄ
p ref
ÄÄÄÄ boolÄ
Äp ad
f v
Ä _t
or g
control _
c rc
10 _
an sw
Op code
ÄÄÄÄÄÄ returnÄ0
k m_
US B_
u x_
a c_
ÄÄ fprintf
_P ATH
h ic
Ät c
bit map_
value_ set_
ÄÄÄÄÄÄÄÄelse ÄÄÄÄÄÄÄÄÄÄÄÄ
m sÄ
D CT
de scriptor
RA ME
Ä key_
V R
de mux
7 5
can f
ÄÄÄÄÄÄreturnÄ false
Coun ter
HAND LE_
co mb
Ädi sp
o k_
co st
IN PUT_
E S_
EE E
set up_
K ernel
GTK_ WID
tr ies
RA W
_p ow
Re ference
F ace
bo xÄ
Äh dr
cont ents
F P
Äf printf
yp eÄ
tc p_
d oneÄ
s b_
Än ull
im al
moun t_
f h
ac ce
Fi eldÄ
'%s 'Ä
i al_
se quence
S plit
Meth o
q p
sp i_
ÄP ar
Sha red
_COL OR
g t
Äg p
G rid
intÄ fd
_C on
Äg l_
Äpo ol
S "
AC TION
I M_
cop eÄ
R P
k eÄ
Äwor k
J ob
.0 fÄ
Äh w
U tils
ATTR _
" re
N M
xml Sec
syn cÄ
suppor ted
Ori gin
_c nt
scri pt_
al seÄ
Pro file
ir t
Ä array
Äh o
adap terÄ
i 32
TC P
LEN Ä
B S
a ff
s of
l 2_
ÄÄÄÄ data
Ä eÄ
A pi
que st_
intÄ retÄ
TI M_
I X_
LE AN
Con vert
S u
Ä left
)Ä {
y s
RE QU
_C MD
Ä4 0
Äg n
fin dÄ
OUR CE
ma y
Äm Ä
pend ing
f old
P lat
T ABLE
alloc ateÄ
I RE
i "
ÄÄ h
ÄS D
Int 32
e -
il li
S top
returnÄ rc
rd_kafk a_
str act
ÄS Y
en cryp
b 2
c ar
Bo xÄ
AR Y
_ST REAM
se ed
Äw Ä
b itÄ
us ingÄ
_p ass
" H
op a
ÄÄÄÄÄÄ whileÄ
dif fÄ
l ut
y 1
> Ä
0000 0
con fÄ
We ight
o v
L F
ÄÄ unsignedÄ
i on_
tr fs_
su m_
compon ent_
Rel ation
/ src/
Äch unk
cook ie
Ä chÄ
Äc alloc
an ceÄ
ÄG IT_
c ut
Äg intÄ
Äcon tain
pro du
J _
Ä_ T
ÄÄÄ forÄ
ÄÄÄÄreturnÄ result
9 _
AN Y
se p
INFO Ä
c lean
pass word
T AR
on g_
cre ateÄ
D y
ZER O
_par ser_
F ATAL
Äp id
ma Ä
F lush
d m
" %d"
ri end
if ace
linen o
Äbo x
lo b_
gu i_
ir _
'%s '"
oc i
CO L_
ÄÄÄÄ new
TR L_
setting s_
templ ateÄ
Ä load
_ sizeÄ
resour ce_
co eff
se e
TR Y
a i_
Äto t
Äde pth
mi tive
O ld
net work_
f li
G V
_p ad
AC _
Äbo und
ÄÄÄÄÄÄ continue
3 _Ä
Mode lÄ
Element s
se to
V OL
DEBUG Ä
Q t
entr iesÄ
ac cept
b and
Äc nt
tracker -
unique_ ptr
SP ACE
Ä AT
NAME Ä
m rb
mo veÄ
con _
ÄÄÄÄEXPECT_ EQ
sha 1
R B
7 6
pp ed
rec ord_
View Ä
low Ä
Factor y
cur ity
O id
ÄS H
MP I
in vo
cel l_
medi a
y y_
ca pa
Äd f
NUMB ER
quer yÄ
Äw in
"%s \n"
pe at
_to_ le
Ä ti
F inish
ath _
hist ory
ME DI
Ä alloc
4 x
to _cpu
ÄÄÄÄ q
ÄD B
group s
m c_
des c_
fo und_
Wr iter
Äsy m
Del ta
Ge ometry
ÄM IN
goto Äcleanup
f ter
ifi erÄ
el lÄ
Mem ber
" *
G Ä
Cli entÄ
E OF
emp lace_
buff Ä
D Y
" e
sc m
sp rite
sample s
be st
ÄÄÄÄÄÄÄÄ t
Ätmp Ä
ÄÄ v
ÄÄÄ structÄ
Ämo dule
PAR AMETER
r ing_
list_ for_each_
ÄG ET
ÄÄÄÄÄÄ fprintf
ifie dÄ
upd ateÄ
dif f_
Äe p
f ull_
ten sor
spin_unlock_irq restore
pla ce_
Node s
', '
is o
utt er_
ADD R_
x yÄ
valid _
range Ä
lin ux_
Typ es
Ex c_
s \n"
ho ur
Äh Ä
u a
9 4
_C F
she et
A NU
so c_
Point er_
ÄN ew
IN TR
RESP ON
Äo s
st and
pen den
_cli ent_
Äx 2
_FAIL URE
Äpro to
il l_
Po st
G M
co uldÄnotÄ
Vector 3
sty leÄ
<< =
dire ct
ctr l_
pre sent
_CHEC K_
quo te
g i_
ÄP y_
ATTRIBU TE_
ta x
ÄÄÄÄG ST_
ÄÄÄÄ pÄ
uint8 Ä
Ä in_
Är cÄ
ÄÄÄÄ k
ev as_
_pack et_
Con stra
ÄÄÄÄ o
def _
AS S_
tcg_ ctx
Äb p
ff lush
ÄÄÄÄÄÄÄÄÄÄÄÄ constÄ
Äp ow
" W
Ä NO_
ciph er_
ÄC UR
P ub
T S_
U til
arg s_
au to_
Äg tk_tree_
ÄÄÄÄ unsignedÄ
HTT P_
pro file
dis k_
spli t_
in o
charÄ buf
Com bo
ta bÄ
Äc lose
Äsa mple
Äm in_
Äe lement
ÄÄ rÄ
wh at
ÄÄ i
PO SI
ÄÄreturnÄ 1
Templ ate
Äw ord
constÄ gchar
R T_
object s
ali as
FO UND
cur l_
cli _
PRO TO
0x 0
w ind
GTK_ TREE_
Sc ene
AV E
n k_
ÄÄÄ caseÄ
ON E_
ol ute
PI X
; "
g s_
Äto k
Sy n
result s
ip s
ar row
Ä up
Str ide
Äg_ str
Ä channel
staticÄ intÄÄ
Sele cted
O W_
4 L
ver ify_
" O
f r_
to o
v t
emplace_ back
i e_
ar m_
Ä3 0
ÄÄÄÄ PyObjectÄ
ÄÄÄÄ resultÄ
J O
r hs
.. ."
ÄÄÄÄÄÄ _
work er
do t
esÄ notÄ
" a
Get String
8 00
encod ingÄ
Ä ec
ca pe
_re q
Ä offsetÄ
\" "
__ecereNameSpace__ecere__com_ _
[ %s
_P H
an e
SW IG_
Äsize_tÄ len
Vertex Attrib
Äp l
low _
bj Ä
int64 _t
mem cpyÄ
bot tom
MENU _E
if fi
dev_ dbg
e th
ac count_
ÄÄÄÄÄÄÄÄÄÄÄÄÄÄÄÄÄÄÄÄÄÄÄÄÄÄÄÄÄÄÄÄ ÄÄÄÄÄÄÄÄÄ
Initializ e
Äc c
ME T
ul dn
H AS_
IN S
to ur
b yÄ
AL E
de "
position Ä
Äto p
FILE_ _
mat che
struct ure
a ces
res u
Con v
proto col
MA _
en v_
camer a
P attern
802 11
cap sÄ
st erÄ
T ABLE_
Conne ct
g_ assertÄ
ÄelseÄ if
" \\
; \n"
,Ä %
Foc us
Ä0x0 1
suf fix
an im
ac pi_
re ce
m alloc_
g pointer
ÄC L
s_ _
Änode Ä
MENU_E NUM_
_ str
de Ä
Äp e
A ng
M gr
ti esÄ
1000 _
Än orm
AR M
ac cel
C LI
ÄÄÄ if
v 0
ne e
G NU
ÄÄ int
tv_ use
RE AL
M an
_ ctx
tag s
ce d
fix ed_
op code
T y
mar ker
App lication
sig n_
ÄÄÄÄÄÄÄÄ h
n ingÄ
Tex tÄ
Ä add
ÄÄÄÄ unsignedÄintÄ
ÄY GNode
save d_
s m_
lo tÄ
si g_
2 d
g c_
r f
E DI
r ate_
Con sole
Äto tal
g on
EV ENT
ipel ine
N AL_
AD D_
DIS ABLE
user name
put c
ac ing
ÄÄ T
uldn 'tÄ
0x 00
spin_ lock
Äp ixel
G LE_
buff e
Äpar ser
dim ension
manag er_
Re place
Mac ro
F older
RE T
Pro gress
ÄÄÄÄ registerÄ
i a
string s
it chÄ
g_object_ unref
W CHAR
_STAT E
cf g_
_pro cess
F e
v g
Ä command
ma ster_
inter face_
byte _
H ex
" c
EX IST
ste pÄ
RIGH T
_f loat
"Un ableÄtoÄ
1 2Ä
Re ctÄ
imp le_
ÄÄÄÄ u
O w
d ate_
Ä fi
st op_
Key s
ÄÄÄÄÄÄÄÄÄÄÄÄÄÄÄÄÄÄÄÄÄÄÄÄÄÄÄÄÄÄÄÄ ifÄ
IN ST
I LL
Ä qu
A p
ÄÄÄÄÄÄÄÄ assert
ÄÄÄÄÄÄ c
_t x
Är b_
line sÄ
Äp p
Äb b
es cap
gener ic_
tim iz
sen tÄ
ver age
lig ht_
f older
u wsgi_
close _
MA ND
L YÄ
Dire ction
o se
ÄintÄ len
dum my
Stat s
DEF IN
ifdef Ä_
y "
" x
DI MEN
intÄ main
h r
_par am_
c _p
8 3
cre ment
r pc
g lew
AN GE_
Sh ad
value sÄ
TE D_
M _P
Äst yle
va_ listÄ
D rag
t ty
data base
" $
I DE
b ad
b io_
Ä loc
" s
set s
Ät ree
exe c_
H AL
ac l
size_tÄ i
" )
Äe lem
wid getÄ
conne ctor
Disas m
Äs lot
ÄS et
graph _
k w
Äde sc
ren derer
Äu 32
Message Ä
an aly
_ get
re alloc
structÄ m
extr a_
h s_
Num Ä
n op
b d_
PI O_
_tmp 0_Ä
P A
X ML_
Äc r
he ap_
Ätar get_
Sa fe
ÄM ULTI
_pa rent
METHO D
c c_
l_ int32
V irt
B IO
ÄP AGE_
shif tÄ
C ast
er t_
E L_
intÄ x
Äp k
CON FIG_
ÄRE G_
at ingÄ
hw Ä
exp i
bo ard_
Äse g
Option sÄ
ro ad
ÄÄ uint32_tÄ
Äj o
gl yph
FUNCTION __
Op t
GO TO_
Ä filter
dow n_
structÄ snd_
f w_
Ä d_
ÄÄÄÄÄÄÄÄ Äbreak
lo t_
Met adata
Z Ä
Ä6 0
BU SY
g t_
Ämb edtls_
VALUE Ä
Ste p
Äf Ä
slo tÄ
_S OCKE
list_ tÄ
So ur
Äo ver
st mt_
con stan
fi gÄ
elem entÄ
Ä ct
Äh and
lo seÄ
D river
staticÄ inlineÄ
ON T_
T mp
re cÄ
ÄÄÄÄÄÄÄÄÄÄ caseÄ
ca st_
Pro ject
_f ind
AT CH
_SI ZE_
SE C_
pro pertyÄ
mar t
Ä1 4
Äg f_
en c_
Py Exc_
log_ debug
Äsize_tÄ size
verti ces
Ä query
_in ser
AUT O
endif ifÄ
ÄÄ_ _Pyx_
spe c_
_po inter
Ädi re
ciph er
S ort
ÄÄ vtk
ide n
ul ong
voidÄ C
cancel lable
for ce_
bl ue
AR M_
_F UNC
ic t_
As sign
seq Ä
structÄ drm_
ÄSE EK
ARRAY _SIZE
LO AD_
DEC L_
N an
Äm enu
G ObjectÄ
n pos
Co mple
pt s
ÄÄelse ÄÄ
Ädata _
_priv Ä
IN D
Ac count
Äptr Ä
en ce
B aseÄ
constÄ unsignedÄcharÄ
0000 000
log ger
WOR K
ÄÄÄÄÄÄ f
L T
FI LEN
b atch
file Name
Äpar ameter
H W
My Disasm
IN D_
ÄÄÄÄÄÄÄÄÄÄÄÄÄÄÄÄÄÄÄÄÄÄÄÄ break
Äin Ä
DOUB LE
inde ntÄ
cache d_
sig nÄ
Comm ent
ÄÄreturnÄ ret
St d
IMA GE
k nownÄ
LI GH
br ary
S OR
db Ä
Con dition
button Ä
Äpar se_
drv data
B LOCK_
P hy
Mon itor
E IO
n r_
G dk
tv_ secÄ
trans fer_
O k
DI R_
I V
Äc fg
Äp 1
_cur sor
ction ary
ie s_
Ä1 9
L iteral
str m
u "
ver ify
DE P
ÄÄÄÄÄÄÄÄÄÄÄÄÄÄÄÄÄÄÄÄÄÄÄÄÄÄÄÄÄÄÄÄ Ä
ÄÄÄÄreturnÄ TRUE
Ax is
file sÄ
ht ml
H DR
ne st
AC T_
t n
token s
MESS AGE
B and
am d
EX TÄ
IC ON
Gener ic
O T_
ifÄ 0
Ägl_ string
Ä valÄ
ran dom
sen dÄ
PRO PER
Ä errnoÄ
Sw ap
ÄFI LE_
EN COD
Mo du
Äproc Name
re co
va_ end
ÄÄ l
EN C
%02 x
arg 1
4 6
S cope
doc ument
ran k
l lu
clo seÄ
_point er_
ÄÄ unsignedÄintÄ
cl k
li sion
ÄT h
Reg istr
_CALLBACK Ä
Obj Ä
ÄC h
" foo
" R
get s
So ck
Fix ed
z alloc
G LOB
Ä stat
Ad ap
Fail ure
EXP R
VAL _
im g_
over flow
ngx_ http_
E num
Äa b
Än on
S M
pe er_
respon se_
D ump
down load
wor kÄ
_path _
Äpar se
ÄÄ printf
g ing
4 _Ä
io ctl
G_ TYPE_
EX CE
Äs 2
io d
Pro perties
DI ALO
Tran sp
G PU
EN TÄ
Äsy mbol
ra se
shut down
t t_
valid ate_
Äa bs
release _
_pre fix
ÄÄ j
ÄÄ g_return_val_if_failÄ
lay erÄ
AP I_
%0 8
Seg ment
f atal
Äc reate_
ro ss
HE IGH
J IT_
ORD ER
lo cale
id x_
ÄC reate
MO D
sp in
Äi mg
in v
ur lÄ
s l_
ex itÄ
strea ms
Set up
yp e_
DIMEN SION
ÄÄÄÄÄÄÄÄÄÄÄÄÄÄÄÄ continue
MESS AGE_
_p ol
Äin i
referen ce_
_ w
_b its
Äse arch
now Ä
colum nÄ
remo veÄ
SH A
'\ 0'Ä
Ver ify
se ct
Äc s
s erÄ
expr _
ÄSQL ITE_
se c_
Trans fer
Char s
DELE TE
Äg d
staticÄ bool
ÄP O
L anguage
b lob
F MT_
Äin te
signe d
ÄconstÄ structÄ
Äth isÄ
Cli ck
x 509
Ä track
la in
ÄÄÄÄ R
j P
w s_
di ctÄ
in_ addr
x fs_
disp atch
Äc i
i li
ID "
enum Ä
v cpu
the me
h l
ST ART
_ST ART
AN E_
MP TY
LAY ER
attribute Ä
Ä device
D 3D
ÄÄÄÄ elseÄif
ÄÄÄÄÄ returnÄ
stack Ä
INTER NAL
Äsn printf
Äs um
ÄintÄ i
gen e
delta Ä
ÄS P
_FLA G
LOG_ INFO
FO RE
ter m_
S um
p le
S uccess
io Ä
Ä In
Attribute s
dir ty
can _
w p
_ R
AR B_
bod y_
io s
frame s
lookup Ä
lim its
Sign al
"in validÄ
sur face
Wra p
run time_
_ type_
Comp ute
Äs b
Sup ported
ON T
"faile dÄtoÄ
Time out
Ä on
la de
de p
ÄC R
AL PH
Äf ind
' 0'Ä
" U
"%s /
h int
le af
D ONE
ÄÄÄÄ delete
f lag_
_FLA G_
:Ä %d"
_ i
_ out
re cur
do esÄnotÄ
seg ment_
Stati c
Byte sÄ
w l_
Sp line
Äre sponse
y 2
Äpr int_
\n" ÄÄÄÄÄÄ
Ä2 5
INT 32
def Ä
%u "
ÄFI X
s chema
N X
spin_lock_irq save
St and
Äs f
UN IT_
N EXT
ÄÄÄÄÄÄÄÄÄÄÄÄÄÄÄÄ return
ÄÄÄÄÄÄÄÄÄÄÄÄÄÄÄÄÄÄÄÄÄÄÄÄÄÄÄÄÄÄÄÄ ÄÄÄÄÄÄÄÄÄÄÄÄÄÄÄÄÄÄÄÄÄÄÄÄ
Ä16 Ä
COL OR
vol at
ÄÄÄÄ unsignedÄcharÄ
an yÄ
Ä DEFAULT_
EX IT
D RI
ÄÄÄÄÄÄÄÄ memcpy
IN SER
sto m_
argument s
prog ress
gl yp
_de lete
BYTE S
( )"
ÄB IT
RO M_
in eÄ
ÄÄÄÄconstÄ intÄ
_SH IFT
Char acter
Ä AD
P ASS
_c lass_
err msg
Dim ension
Cha in
va_ start
ÄÄ x
ch at
enum er
Ä1 3
ÄÄÄÄÄÄ charÄ
ÄÄÄÄÄÄ s
origin al
di ag
for ward
Lo w
ÄÄ J
Äth read
p lugin_
Ä spec
Handle Ä
"In valid
Äs r
_C TRL
Äv tk
ÄÄÄÄÄ intÄ
ste p_
de coder
bo ot
le a
Äf e
n b_
wal k
S ingle
re ctÄ
info _ptr
ÄÄreturnÄ result
Sur face
_PO INTER
R U
get Type
af ter
m b_
re st
_c all
medi a_
V P
gotoÄ out_
gp io_
par t_
ml x
Ädi ct_
Ä c_
Äcon f
be st_
Äp 2
L ex
se l_
Ä t_
ÄÄÄÄ uint8_tÄ
config ure
ÄS O
l l_
Ä action
Äj ob
c 0
Ä error_
Ä task
RO T
ÄM PU
mt x
LE CT
Äre l
ÄconstÄ gcharÄ
ap Ä
destro yÄ
thresh old
INTE GER
K E_
Ä dÄ
Äa ct
Is Valid
ÄA F_INET
' ='
id "
structÄ deviceÄ
" h
Qu ad
C S_
Ät p
ÄÄÄÄÄÄÄÄ size_tÄ
MAN D_
ÄÄÄÄÄÄÄÄ x
De coder
ÄT r
ri tical
end or
z ip_
P _P
Äwidth Ä
ÄÄÄÄ N
JS AMPLE
Äb in
EX TR
T AIL
_cur rent
sensi tive
sca leÄ
qu it
s g_
VAR I
" ,Ä"
c errÄ
sc si
RE DIS_
Äd x
Log ger
8 5
event sÄ
P Q
boo k_
up s
ACTI VE
MODU LE_
Ä1 0Ä
list ener
t y_
Ä2 00
MP I_
H GOTO_
An y
a 1
Ä lengthÄ
gotoÄ yy
ÄÄÄÄ str
ÄSC M_
b an
G_ OBJECT_
Lo wer
sh ap
Mask Ä
ext en
S chema
ut able
Message Box
= "Ä
yp o
sl ur
Comm on
B T
' +
pre fixÄ
ffff ff
ÄÄÄÄÄÄelse ÄÄÄÄÄÄÄÄ
in stance_
dy n
gr p
P lot
ÄÄÄÄÄÄÄÄÄÄÄÄreturnÄ false
p anel
" '
unk nownÄ
vector _
Ä user_data
si s_
L S
Se cond
Frame Ä
B A
INI TI
ÄÄÄÄÄÄÄÄ ImGui
ti p
7 2
DE VICE
ALL _
ÄP C
Can cel
ev _
_g lewInfo
send er
Ä link
O M_
ÄÄt reeÄ
Äm ulti
map ho
ÄreturnÄ 1
\"%s \"Ä
ÄÄÄÄÄÄÄÄ r
TEX TURE_
Id xÄ
ÄÄÄÄÄÄ this
l d_
en tity
AG AIN
Ädi m
se condÄ
ÄE OF
Con n
Äal pha
Äf ont
ÄÄt t_
Ä int32_tÄ
ÄÄÄÄÄÄÄÄÄÄÄÄÄÄÄÄÄÄÄÄÄÄÄÄÄÄÄÄÄÄÄÄ ÄÄÄÄÄÄÄÄÄÄÄÄÄÄÄÄÄÄÄÄ
Äcpu _to_le
Hel per
e val
fe atures
op sÄ
A X
ÄÄÄÄintÄ n
Comm andÄ
Ä option
run ning
ÄconstÄ intÄ
MA IN
adi us
HO ST_
ard ware
mp z
Ä0xff ff
Äbe gin
ss canf
ap ply
an not
MB O_
_C AP
Bo olean
ÄJ S
asci i_
id _tÄ
ÄS e
pend ing_
get c
m it_
den try
ÄÄ AS
'a '
moun tÄ
E IN
P anel
RE NT_
Äs creen
d m_
EXP Ä
D ig
Re port
POR T
loc ationÄ
" +
_re quest
ÄÄÄÄconstÄ char
Encod ing
R C_
g_ string_
, %
x _p
transp ort_
r up
Äg ener
ÄF _
tim erÄ
Äsn d_
sla ve
u alÄ
s si
.. .\n"
B ot
R ad
hel per
AT URE_
can vas
combo _
ec tedÄ
ag g
ÄL U
_ u
k v
Äsqlite 3_
Str Ä
pack age
Äso cket
ÄÄÄÄÄÄÄÄreturnÄ FALSE
S n
Ävalue s
Config uration
Ä AS
Än to
transp ort
ÄÄreturnÄ TRUE
" m
wa ke
empt y_
G C_
ARRA Y_
F D_
Ä uint16_tÄ
pro perties
cli ck
wor ld
BOO LEAN
" Y
atter nÄ
oriz ont
ÄÄÄÄ ImGui
returnÄ error
g m
Äin ode
forea chÄ
es cape
f p_
DEBUG_ OBJECTÄ
ÄÄÄÄÄÄÄÄ resultÄ
comm on_
or ityÄ
Ä buff
sock etÄ
ve cÄ
Äg t_
h old
ti ve_
R ule
SE TÄ
UN LIKE
GL FW
andid ate
un do
dig its
ÄYGNode LayoutGet
C L_
s_ s
error "
'" '
driv er_
Ä type_
_re lease
ENO ENT
IMA GE_
Var Ä
X P
ran dom_
Ste am
Ä TI
Äf ree_
Ä line_
sd s
x x_
Ä startÄ
EXT EN
ÄSIG NAL
lock ed
LE AR
ÄÄ registerÄ
ÄÄÄÄÄÄÄÄÄÄÄÄ elseÄifÄ
ca le_
ÄÄÄÄÄÄÄÄÄÄÄÄÄÄÄÄÄÄÄÄÄÄÄÄÄÄÄÄÄÄÄÄ ÄÄÄÄÄÄÄÄÄÄÄÄÄÄÄÄÄÄ
qu anti
_tmp 1_Ä
_c tr
ÄÄEXPECT_ TRUE
Äreg ist
Virt ual
_b in
Äre al
alloc ator
count erÄ
selection _
Äc al
conne cted
check Ä
DI RECT
Ac tiv
ers on
dire ct_
RE Q_
bl ing
ip eÄ
view _get_
32_ to_cpu
I MP
2 f
Level Ä
spe edÄ
thread Ä
rege x
ÄÄÄÄ __
RE PL
"Can 'tÄ
Ren derer
V EC
MEMOR Y_
C D
n a
ÄÄ g_return_if_failÄ
col sÄ
cal cul
H U
"/ "
P lace
l 1
Äre sÄ
ol _
FIL TER
ÄI 2
f nÄ
Ä0x %
now n_
ENT S
v4 l2_
H S
un k_
cre d
Y GNode
Button Ä
Conne ctionÄ
Äx 1
Pro du
n fs
De viceÄ
page s
Än b
Äc lass
mem setÄ
Bit map
Ätr ueÄ
n y
version _
A ctionÄ
pa lette
mag ic
Ä NO
po si
w m_
wh ich
pro ps
ad j
NE L_
{ }
" "Ä
Ä ra
f tÄ
Ä5 0
UNU SED_
RE D
igno re
store Ä
PRINT F
8 4
_ptr_ array_
. 4
ÄÄÄÄÄÄÄÄ e
RE EN
de c_
Äcon trol
H5 E_
th ing
pro gram
_pro g
HGOTO_ ERROR
' 9
structÄ h
Ät m
i g_
SE LEC
H I
ÄMULTI PLY
V ert
ar chÄ
Äs la
se sÄ
ca m
Child ren
Cu stom
H dr
st ub
p ng
Ä url
len _
or s
Äit erÄ
MENU_ENUM_ LABEL_
CM D_
ÄÄ boolÄ
Ä0x %x
UN D_
b "
b t_
q q
json_ object_
d c_
x t
UR I
vs_ top
WA IT
data /
S core
ÄÄ E
PRI VATE
ÄÄ ASSERT
node _tÄ
Äcur sor
\n" ÄÄÄÄ
" k
f fi
Äc or
Äcre ateÄ
un link
state ment
unsignedÄlongÄ long
ÄO_ RD
Äp b
ACKE T_
Äpro g
Ästd err
Sw itch
ALIG N
Ä uint64_tÄ
_PRO TO
S P_
net_ deviceÄ
ÄGT K
_pro perty_
arg umentÄ
or mat
modu leÄ
_ error
"can notÄ
gn utls_
inst all
ou s_
sn d_p
Sy m
GR AM
Track er
p MyDisasm
G UI
Li b
G IT_
cl s
S_P ER_
lu s_
KE D
= %dÄ
w in_
constÄ Q
A g
n l_
Änum berÄ
str str
Con ver
operand s
gf x
_de sc
ÄÄÄÄ buf
ÄW IN
ÄÄÄÄ ASSERT
fm tÄ
togg le_
dis able_
lo ok
X "
at ta
_t ree
ori ent
cl_ git_
_pa ir
r 1
in ti
" t
Äg en
Äre qui
rend er_
fa st
add Reply
Mat erial
M F
structÄsock addr_in
Th row
ÄH AL_
Äp lugin
capt ure
Object s
ÄÄ free
mar y_
app lication
Back ground
G ee
th um
Lo cale
n ull_
d p_
i2 c
F RAME
D rop
sh ader
ingÄ toÄ
_ x
pa s
_re g_
Äg ame
STAT E
Äcan notÄ
5 _Ä
C lock
lim it_
Proc Address
i sp
St mt
Re q
hic le
ap ply_
c w
f at
Äc u
uint ptr_t
pc i
S K_
ÄC ur
ast er
_t x_
Sk ip
b m
g tk
\n" Ä
CL ASS
= %d\n"
B AR
n erÄ
RIGH T_
Col lection
" ."
ÄZ _
g ate
sli ce_
2 9
Äwid get
DISP LAY
ist ic
Al low
Ä longÄ
Äconne ction
U I_
ÄF LA
Con stan
SP I
ati veÄ
DATA Ä
RO W_
IR Q
suc cessÄ
I2 C_
le x_
un itÄ
_SE TT
slo t_
scri be
ex _
C ho
referen ces
rec i
err code
Ä edge
pixel s
M I_
gi cÄ
RE SET
Äd p
DMA _
\n\t "ÄÄÄÄ
ÄÄ default
' *
ÄÄÄÄÄÄÄÄÄÄÄÄ std
Ä T_
st mtÄ
ret ri
ÄÄÄÄÄÄÄÄ i
Comp o
ret r
ÄG_ TYPE_
respon seÄ
Ow ner
in clude
lay ers
ÄB O
Äu 8
_f lush
UInt 32
H Ä
di stÄ
6 00
_p lugin
Äg_ value_get_
" ERROR
e red
ÄÄÄÄÄÄ png_
Äflag sÄ
ret l_
ti ce
me d
OUT PUT_
r m_
_f in
M IS
ÄÄÄÄg st_
sho ul
' )
ar getÄ
Ä cache
mat ches
For m
UN IT
h sÄ
intÄ jÄ
Fo und
Äid xÄ
'Ä 'Ä
sing le
lut ter
m_ s
DE V_
dow nÄ
c sÄ
sp aw
firm ware
ÄÄg t_
HO ST
ÄMPU 6050
SP EC
inter faceÄ
Äf ull
De v
JS ON_
_CON NEC
en um_
DCT SIZE
hand sha
G IN_
u art_
ÄÄÄÄÄÄÄÄÄÄÄÄÄÄÄÄ p
De te
AC TION_
b ility
dev ices
la mb
da em
ÄÄÄÄÄÄÄÄ int
VER BO
caseÄ 1
_CO UNT
K Ä
viron ment
BUG_ ON
Last Error
Hist ory
po licy
M ar
chun kÄ
gtk_tree_ model_
dire ctionÄ
ÄÄreturnÄ NULL
Änew ÄQ
l iteral
1 1Ä
s_ Ä
_e qual
assert_ param
plan e
Ä0x 10
Init Struct
" &
List ener
comp _
ex pect
Ro und
Del ay
Äg_ hash_table_
ADD RESS
a ch
EN CE
_CON ST
ju mp
home /
um ent_
el _
IN E_
stat es
W S
a yÄ
ÄS LOT
in ner
ÄM C
Dist ance
ex tern
tit leÄ
f '
ins nÄ
rade on_
Äf actor
H ASH_
Id s
w q
di s_
Sign ature
an ce_
ÄÄÄÄÄÄ default
th ro
wh en
Re mote
" );
ÄÄ Äp
SY STE
or de
ÄÄÄÄ M
constÄ auto
la de_
Ä lua_
ÄÄÄÄÄÄÄ ifÄ
Ter min
S lice
ra m_
k ill
ÄCON FIG_
t xÄ
dd y
D iff
le ave
ame terÄ
sy m_
re ply_
endif ÄÄÄÄifÄ
Äpro p
qu ad
ÄÄÄÄÄÄÄÄÄÄÄÄÄÄÄÄ ÄÄifÄ
Äb od
Ge o
c id
ÄA V
CON N
"/ home/
L Z
staticÄ charÄ
sock Ä
ve d
sn mp_
Y TE
b al
de code_
_CO MM
Inter val
cap acity
str i
window s
av a
uint32 Ä
_p k
ou sÄ
channel sÄ
l hs
gener ate_
__ecereNameSpace__ecere__gui__ control
W M_
ÄÄÄÄÄÄÄÄ D
Ä INT
bu g_
LA Y_
clo sure
ENO DEV
z one_
unsignedÄlong Äflags
l er_
si ty
lex er
ÄM I
Head erÄ
_ set
Äb lk
d rop
P r
", "
Bu fÄ
_priv ateÄ
Ä ent
s_ list
s_ in_
IO _CHECK
Ä "Ä
B ra
Par tition
aliz eÄ
Äf alseÄ
L a
clu ster_
INTER F
buffer_ size
X 86
Ät s
cha in_
Ä vi
,Ä ?
rt p_
_tmp 2_Ä
st "
b ri
N F
_c all_
else returnÄ
verbo seÄ
Pop up
scal ar
Do ck
Ä end_
ÄÄ auto
LOG_ WARNING
_glewInfo _
Äst dout
N P
R _SUCCESS
ARG UM
ab sl
r l_
change d_
anag erÄ
ÄSTAT US_
Äms g_
ne d_
'\ r'
port s
X IT
G o
al k
Äa st_
D et
tit yÄ
y cle
str to
h c
5 9
Po licy
min or
Äex tra
%d .
Gl yph
C lass_
ÄÄÄÄÄÄÄÄÄÄÄÄ returnÄ0
_par tition
Äfloat Ä
control Ä
parameter s
_pa rent_
m 2
ci rc
Äf name
Ä atom
Äwh ile
ÄÄ F
EXCE P
sy sc
mo re
f etch_
i ver
mu stÄbeÄ
Ma ster
av eÄ
EXP ECT
FIEL D_
cryp t_
bin ary
_T REE
t ÄÄ
lat pa
low er_
Ästr Ä
Un known
ieee 80211_
Oper ator
ÄÄ doubleÄ
reg ion_
Ext ent
cr y_
" test
si Ä
s_ base
_ value
h er
ÄintÄ y
Get ProcAddress
Row s
AS ER
C lo
x t_
sla sh
_be gin
vi ous
pro ject
Z one
ÄÄÄÄ lenÄ
ÄÄÄÄÄÄÄÄÄÄÄÄ m
N ative
_c leanup
ÄÄÄÄÄÄÄÄÄÄÄÄÄÄÄÄ intÄ
PAR SE_
or ted
Color Ä
cryp to
ÄÄ while
tran sition
e 2
g b_
back ground
Ex ternal
ÄÄÄÄÄÄÄÄ G
ph p_
ÄH TT
st ick
ÄÄÄ else
s .
lo gin
ext ent
Äg_ new
P ATH_
STR ING_
D V
sh ort_
s_ count
ÄÄÄÄÄÄÄÄÄÄÄÄ s
sm all
si m
check sum
Expr Ä
x 1Ä
Ä copy
"< /
x mm
f sÄ
v d
ci sion
O ID
Ä settings
box es
Äs 1
mo dÄ
Flag Ä
U sed
ma gicÄ
cr _
comp res
to u
selec tedÄ
di m_
AR CH_
begin Ä
build er_
RESPON SE_
i 64
Äpro cess
0x 8
AC HE
E l
yy chÄ
Gener ator
Äd if
col l
numer ic_
n 1
Ä3 1
Hel p
st d_
check out
Äi 2
back end_
Un lock
cmp Ä
Ätmp _
u le_
do mainÄ
OC K_
le mÄ
S ame
Name d
orith m
ÄÄreturnÄ false
ÄÄg st_
BE GIN
iph er
gu intÄ
dup lic
e of
_P R
Äop _
Reg s
ENABLE D
. 00
ÄS L
' #
M E_
B IG
_p e
ÄMS G_
REQUE ST
'9 '
ke d_
C ASE
Äv 2
item sÄ
CON TR
o ct
ÄL D
Run time
' _
Map Ä
con sume
Ä first_
In vo
load Ä
MENU _
b v
_m enu
tra in
Format Ä
Get Value
T P
% c
ge st_
Lin es
leg ac
[ %d
empt yÄ
spe ct
RESUL T_
OR Ä
:Ä %dÄ
char act
d uration
Äd iff
ANU S_
al readyÄ
B reak
x f
Äi mp
Co lour
Äc ell
enc il
: "Ä
ÄÄÄÄÄÄÄÄÄÄÄÄ whileÄ
Ser ializ
cy cle
%0 8x
Plat form
W N_
Ä0x F
exp and
Ä default_
hist o
S UPPORTED
l ue
Ä text_
Äcp l_
a ir
ÄÄÄÄÄÄ printf
AUL T
di stance
Äi r
s 32
structÄ f
n u
r data
id le_
ma ch
D one
En c
\"%s\" "
ÄÄÄÄÄÄÄÄ v
l us
FR AME_
is c_
ÄT H
written Ä
h it
b order
h ints
Äop t_
ÄÄÄÄÄÄÄÄ char
sr v
M C_
VIDE O_
st m
TE X_
bin d_
vari ant
L ux
P t
al f
EN V
_f amilyÄ
Ä5 Ä
db g_
linen oÄ
auth entic
st opÄ
WOR D_
si cal
string streamÄ
isÄ notÄ
in el
ho to
Utf 8
Ä trans
In stÄ
ÄS y
pe dÄ
_CON FIG
lo opÄ
cr Ä
Ä tab
Ävar i
**** ****
Con f
Äa x
u byte
do main_
el ap
4 "
b in_
of ÄtheÄ
ÄÄÄÄ switch
Äy 1
structÄ __ecereNameSpace__ecere__com__
2 fs_
Äp attern
_f ull
TH READ_
WN D
A fter
File Path
B T_
ÄÄÄÄÄÄ switchÄ
gener ic
T T_
co ords
D BUS_
structÄ g
IS_ ERR
Frame s
ÄÄÄÄ H
ÄÄÄÄÄÄÄÄÄÄÄÄ c
Proto col
make_ shared
I B
d 1
%s :
pack _
READ Y
Graph ics
exp an
h b
ÄÄÄÄ LOG
_COL OR_
915 _
ÄÄÄÄ nÄ
Con ta
Sel f
IN PUT
MB OL
00000000 00000000
ÄÄ uint8_tÄ
f fix
ÄÄÄÄ gotoÄ
INC REF
un t
O c
returnÄ r
Data Type
z e_
_b aseÄ
inter valÄ
V 2
Token Ä
n rÄ
_byte sÄ
be fore
else ÄÄ
n one
ar ation
Äb its
LL VM
compon ents
Py Object
info _tÄ
activ ate
S ql
ee k
Äu _
GtkTree IterÄ
f amily
FIR ST
symbol Ä
templ ate_
Äite mÄ
l z
ato m_
Äc 2
Ä address
dest ination
th e_
opt arg
ÄÄÄÄ ctx
TL S
TR I
Get Current
ING Ä
e 1
ac ityÄ
" 0
gpu _
ÄÄAS IO_CHECK
N V_
ÄÄÄÄÄÄÄÄÄÄÄÄÄÄÄÄ gotoÄout
ÄÄÄÄÄÄÄÄ ÄÄÄÄÄÄifÄ
i eld
En tries
Äcon fig_
J S_
P atch
Ä column
s_ in
md 5
Re ge
sour ces
_f inish
St ate_
level _
Äst ep
Tr y
sy mÄ
brid ge
un ch
get Operand
_ST REAM_
ÄE INVAL
initializ e
lic y_
g_ assert
rel ation
y 1Ä
ÄÄÄÄ Set
ur i_
B ig
qu ick
Qu o
Ä0 U
o c_
p atch
_c fg
go tÄ
cl_git_ pass
D D
ÄÄÄÄÄÄ d
En ter
fif o
5 4
a ke
INT Ä
con stant
um ul
Äp lan
key sÄ
c q
sla pi_
M G
M s
sh ell
su ite
Äpath Ä
c en
ff Ä
"Ä "Ä
5 00
O utÄ
LIN K_
VERIF Y_
t c_
Ä unsignedÄlongÄ
So und
Äg lew
action s
u_ charÄ
ÄÄÄÄ E
B lob
ÄM Y
C la
ÄÄÄÄÄÄÄÄÄÄÄÄ g
C enter
rt p
co stÄ
1234 56
Ätot al_
Äj son
GS ListÄ
signal s
texture _
A ctor
Ma xÄ
metadata _
Ä enum
H IGH
Ämo ve
ÄCON ST_
G uid
b w
OR Y
cp i
m w
ff _
push _
Strea m_
namic_ cast
as s_
Dlg Item
E ffect
12 7
checkout /gnome
V V
'\ t'
" }
Ä app
reci sion
slo ts
Bound s
ÄÄÄÄÄÄ GST_
ÄÄÄÄÄÄÄÄÄÄÄÄ ImGui
res olution
ele m_
si 128
ÄC P
und er
G IT
S ol
ÄC OL
br anch
rea ch
Pix map
AT T
table s
An aly
S U
_c f
ri er
ITE M_
R ANGE
Bit sÄ
PK IX_
p state
re qu
"gl Get
ÄÄÄÄÄÄÄÄ Py_
Äg_strdup _printfÄ
lu g
_CON FIG_
krb 5
NE D
RE LE
Äg Ä
Äd t
Exist s
6 7
ÄÄÄÄ int32_tÄ
le ted
ÄP G_
Äg raph
Ä0x 2
ÄT est
k b
cl utter_
pd f_
Dis k
N extÄ
n or
u char
po wer
aliz e_
ut or
TEX TÄ
char set
u id_
ÄÄ P
De fÄ
,Ä $f
g re
AC PI_
maj or
se u
callback Ä
SY S
TAR GET_
T rig
ÄRE DIS_
ident ifier
n c_
ac l_
def inition
g uid
_page _
Dir Ä
c enter
a mp
vs_ base
8 9
__ m
I OC
Comp lete
1 .0f
H C
ar row_
ÄÄ Äpng_
oth er_
buf len
Ät 1
D T_
at tack
Sour ceÄ
pro ces
Code c
Row Ä
Ä te
de ad
_C h
inode _
Äcli ent_
gf_ logÄ
i alÄ
F B
q l_
ÄÄÄÄ info
structÄ net_deviceÄ
ÄÄÄÄÄÄÄÄÄÄÄÄreturnÄ NULL
file_ get_
scrol l_
ver ts
Ident ifier
ÄÄÄÄ self
m h
AI T_
fa bs
y ou
if e
D S_
F ast
Än v
c lone
Äc v
NOTI F
s ingÄ
V S
in ner_
ÄN um
Ämu stÄbeÄ
" )"
atter n_
3 00
ÄÄÄÄÄÄreturnÄ true
Äc m
Ä REG
in dices
foc us_
buf _size
sca le_
0 4
M erge
Äarg ument
ver t_
Äf l
Ab stract
ÄU INT
C String
ro ck
c ra
Lo ader
Ä ARRAY_SIZE
metr ic
co ef
Ä1 8
foc us
6 _Ä
Re dis
ifi ers
ru les
CO UNT
INTER NAL_
Ät v
ÄÄÄÄ wx
ÄÄÄÄÄÄÄÄÄÄÄÄÄÄÄÄ else
mo _
TH ER
alpha Ä
ex ter
_b lock_
Äse ction
b l_
Äi i
rt c
arr y
Buff ers
enc yÄ
fo ut
ÄFI LEÄ
s d_
g int
j s_
caseÄ 2
_page s
NO_ ERROR
constÄ QStringÄ
ÄÄ r
AS TÄ
year Ä
sc si_
Exec ute
un used
_SE S
A bs
ch k
constÄ GL
screen _
con sole
PRO P
k p
ch rÄ
el m_
QUE UE_
wsg i
p e_
Ä Op
E V_
pc m
AD C
ÄP R
Pri mitive
so und
key word
_tmp 3_Ä
sli ce
b i_
str l
Byte Array
ÄÄconstÄ char
FLAG S
u tion
ptr _tÄ
outÄ of
Ä errorÄ
STR _
compress_ ptr
Äcryp to_
H int
u8 g2
M R
str chr
l arge
ren a
su re_
pre c
registr y
error_ codeÄ
Äb ad
Äpa ir
Wr it
se ctionÄ
8 6_
g r_
file_ info
CON ST
gno re
arg 2
spon seÄ
sÄ (
Äse c
Ä chan
op al_
ÄÄÄÄÄÄÄÄÄÄÄÄ gotoÄ
FIL TER_
lo Ä
Äsour ce_
ÄO n
\n \
imp ort
ch ip_
ic e_
is Valid
v r
VIDE O
E LL
or b
Z END_
tit y_
Äb i
gf x_
ES P_
" 0"
Äb lock_
u w
ÄS N
di mÄ
I VE_
R X_
ÄÄÄÄ doubleÄ
ÄÄÄÄÄÄÄÄ set
Constra int
Äc md_
ÄC ol
mem move
Pa lette
M UL
%s ,Ä
STRUC T
En vÄ
Sh ift
Sele ctor
B ad
arg vÄ
ÄI rp
ge o
lic it
D EN
_pro xy_
children Ä
_pack _
b order_
_p hy
cap s_
previ ous
ÄSEEK _SET
T up
ÄZ STD_
IS team
J NI
ÄÄÄÄ set_
in validÄ
PO INTER
Alloc ate
par amÄ
d t_
ÄÄ w
RE T_
meta _
_ o
to kÄ
director yÄ
Ä value_
unsignedÄ shortÄ
ÄG st
cnt l
ÄMB EDTLS_
In str
Shad ow
_f rom
M alloc
In dices
Ä use
spec ial
s size_t
di _
length _
sw _
re du
Äg_ slist_
Ä ul
mar kÄ
_push _
op 1
offset s
ÄÄÄÄÄÄÄÄÄÄÄÄ fprintf
li c_
Ä us
uni code
ÄC K
g ue
f id
p ret
ÄÄÄÄ sprintf
ver s
Ä _c
V ECT
Äerr msg
ASSER TÄ
_p attern
bit s_
'+ '
Back end
ÄI R
a sure
Re gÄ
a sync
ÄÄÄÄÄÄ n
Äs in
block sÄ
com ing
C ryp
( '
G_ OBJECT
M IN_
E MPTY
Error Code
LO OP
e report
Äoper and
TO G
end point
il lÄ
ÄÄÄÄÄÄÄÄ new
par m
ÄÄEXPECT_ CALL
_p lan
ER T_
DI REC
I t
Ä idÄ
G W
ÄÄÄÄÄÄÄÄÄÄÄÄ f
intÄ c
tr ail
read y_
0 .5
write l
ca pÄ
rag ment
iss pace
ame ter_
Re ceive
Dy namic
pthread_ mutex_unlock
Ar g_
g it
Registr y
cop e_
d ro
Pri ority
ÄÄÄÄÄÄÄÄ this
de lay_
ÄÄÄÄÄÄÄÄÄÄÄÄ printf
is Null
opa que
Ä log_
ap r
cairo _
B order
Ä INT_
_pr intÄ
str ip
Äst mt
wra pper
e as
ext ent_
en s
ret ry
Äp oly
resu me
ÄLU A_
se g_
re start
s_ str_
snd_p cm_
ÄOP_ EQ
() :Ä
ÄS CM
j ack
RES S_
4 7
_CON TAIN
m_ data
la in_
value "
ÄÄÄÄ cc
faile dÄ
in ptr
Ä% u
G B_
Äm id
' s
R sp
ÄHP Node
,Ä butÄ
RT C_
ASN 1_
gotoÄ T
en code_
ip mi_
r 2
Bu cket
AT OM
ÄÄÄÄÄÄ m
caseÄ S
UPDAT E_
ÄÄÄÄÄÄÄÄ q
Äb t
MA C_
sign alÄ
method s
hist ory_
PyErr _Set
Äwe ight
Re size
ran ch
'A '
ÄÄÄÄÄÄÄÄ S
for war
ge d
ÄÄÄÄÄÄreturnÄ 1
ac cessÄ
Se parator
d lg
ERR NO
resour ces
C A
M _S
' ?
Y Y
I rp
Stand ard
U Ä
TH ROW
pla in
Ter m
q d
Ästr str
run Ä
Äp layer
Ä ha
VER TEX
hel per_
o stream
_SI G
ro undÄ
_CONTR OL
rt x
Ä lua
read er_
mm c_
j ut
get Name
rr d
ÄÄ Ä0
Är _
tr im
Ä0x 5
ig en
ÄN IL
if s_
Äg uintÄ
g_return_ if_fail
fa ces
SP ACE_
j s
_de pth
Ätc g_
sp ca_
ÄÄÄÄÄÄÄÄreturnÄ ret
ÄÄg boolean
ev t
Ä timeout
ÄÄÄÄ sÄ
um my
W H
file s_
ic mp
:Ä %u
Metho d_
x 11
ÄÄÄÄÄÄÄÄÄÄÄÄÄÄÄÄ ÄÄÄÄreturnÄ
Ho ok
th r
th at
Äh ex
disp layÄ
Äsk b
Ästr ide
si o
AT ED
Äh igh
fin al
set Text
Äv 1
an i
Av ailable
C AP
Date Time
% lu
tit le_
callback _
u8 x8
pix buf
_pro perty
TREE_ CODEÄ
or ph
Ä ssl
itu de
p pÄ
sh ip
_re move_
"% dÄ
ific ate
hi 2c
back _
Ästr n
99 99
of s
function Ä
Block s
do c_
mer ge_
ÄÄÄÄ uint64_tÄ
n 2
sec ret
f ul
alloc ate
ÄÄÄÄ resÄ
" 1"
set Value
v if
QUER Y
ÄÄ mp
built in_
X DECREF
yp os
den tial
script orÄ
N N
Äp ortÄ
Ä statusÄ
Ämon o_
d 2
For ward
ÄÄ CHECK_
intÄ rc
Ä size_
ex p_
char acter
C at
Äi con
ÄÄÄÄÄÄÄÄÄÄÄÄÄÄÄÄÄÄÄÄÄÄÄÄÄÄÄÄÄÄÄÄ ÄÄÄÄÄÄÄÄÄÄÄÄÄÄÄÄÄÄÄÄÄÄ
p "
ÄÄg charÄ
"Faile dÄto
ENTR Y_
tv_use cÄ
I W
Rect angle
igno re_
A F_INET
N AM
un its
section _
comp ressed
_re quest_
rot ation
mapho re
aft erÄ
S_ IS
Äs l
k lm
ST ER
Imp ort
ench mark
ul er
ha vi
LE D_
signe dÄ
IP V
g_ list_
NOT_ FOUND
structÄ c
DI SC
control ler
Version Ä
root_child 0
Read Ä
man _
Arra y_
Mat ches
ÄÄ X
ke ep_
le ss
ra ise
\n\t "ÄÄÄÄÄÄ
se parator
comp iler
ÄÄ a
ÄÄÄÄÄÄÄÄÄ returnÄ
ifi er_
Spe cÄ
Ä l_
_po intÄ
Äal ign
int_ op
Ev as_
UC CE
ÄÄÄÄÄÄ i
WINDO WÄ
EXT "
. "Ä
wh o
cont in
_ _func__
ÄÄÄÄÄÄÄÄÄÄÄÄÄÄÄÄ retÄ
cach ed
ÄÄ 1
AL Ä
sr s_
pol l_
Äf s_
WINDO W_
B rush
pow er_
s 1Ä
Me tr
Ä loop
dis connect
klm nop
' >
Äin putÄ
Ä EC
all y
Äth is_
show Ä
Ä vector
Function Ä
Äi _
v rr
MD 5
align ment
tv_ sec
b 1
scr atch
re plyÄ
Ä AN
" __
R D_
j sv
out er
dir s
Lat in1
f t_
iz er
LIM IT
Ä device_
edge s
Res ol
_C PU
conf li
"Un knownÄ
a 2
ÄÄÄÄÄÄÄÄÄÄÄÄelse ÄÄÄÄÄÄÄÄÄÄÄÄ
Äm d
st_ mode
g_ hash_table
LU A_
' "Ä
id den
list_ add_
gra mÄ
attribute _
R aster
9 2
id le
"foo "
compress_ptr Äcinfo
ÄÄÄÄÄÄÄÄ continue
cur ve
(%s )
_de stro
_P L
plat form_
exp ort
P iece
p ipe_
Ä Read
task Ä
n 'tÄ
LOG_ LEVEL_
ru le_
Ä alloc_
mu x_
DIR Ä
n k
Änull ptrÄ
mem ber_
Ä unit
L W
Ä x_
G t
p ap
Ä0x 6
\x 00
sho uldÄ
ch oo
EN S
a de
Tex Coord
OP TION_
Hand lerÄ
B P
n dÄ
, "
Inde nt
cal c_
cl k_
O GR
g _p
Äre g_
rea m
_S W
Än p
Äa ss
CH AN
g "
con structor
Po wer
attr ib
A H
returnÄ res
resh old
ÄÄÄÄ V
t z
back g
error _tÄ
_f ont_
F ULL
GP IO
M anagerÄ
w y
"in valid
Äfailed \n"
klmnop qr
strn casecmp
Ä lib
ame l
Äht ons
constÄ autoÄ
Äs ur
buck et_
yp er
lid er
ÄÄÄÄ rÄ
%d )"
Ä__ FUNCTION__
__pyx_ L
BUTT ON_
OCKE T_
co _
intÄ r
ÄI EEE
__ecereNameSpace__ecere__gui__control s__
ÄÄÄÄÄÄÄÄ gl
_d bus_
NOTI CE
nd pi_
DEFIN ED
p Data
al s
ati oÄ
S ide
wra p_
in str
Äin st
Äse cond
pri ority
kernel _
D SP
ic al_
6_ addr
ÄÄÄÄ doÄ
ipv 6
ser o
p error
fi re
che dÄ
me an
_in ode
aj Str
Ä0 L
sent inel
B F
pool _
pa re_
uc cessÄ
act ual
e valu
LIST_ HEAD
z u
Äu 8Ä
edge _
c '
ve lo
ifdefÄ DEBUG
Can vas
ÄGD K_
p P
s To
Ä0x 20
I mm
Col le
error_ code
m q_
extr act_
ÄÄÄÄÄÄ autoÄ
able Äto
Trans l
ASER O_
t urn
mo tion
F etch
At tach
valid ate
E NUM
R M
Äsh ift
25 6_
ÄÄÄÄÄÄ for
Ämy sql_
The me
00 Ä
Gtk Widget
MY SQL_
f it
ÄÄÄÄÄÄÄÄÄÄÄÄ _
score Ä
time val
u ard
in stanceÄ
ab ility
f etch
mp i
Py Arg_
Äz end_
Äwx T
conta ct
Ämo du
ÄÄÄÄÄÄÄÄ auto
sÄ toÄ
w he
Ä EN
ÄÄÄÄ Py
_C heck
ÄÄD BUG_
AN K
Ä user_
b v_
f l_
Äto Utf
=Ä %d\n"
VERBO SE
LI _
gtk_widget_ set_
Ät reeÄ
Än ot
ST REAM
a dev
_p id
op codeÄ
B atch
ator _tÄ
INDE X_
HER E
Ä version
ERR Ä
for k
EX _
_CON N
Äpa rent_
stat sÄ
gd k_
G et_
_ph y_
list _pre
O D
g_ str
ag ent
Äo b
b et
Constan ts
top ic
b lack
ÄÄÄÄ CHECK
_SI GN
"N oÄ
" error
ang le_
multi _
Time stamp
Bo ot
m 1
ST ACK_
ifdefÄ USE_
si le
ÄF ind
un ge
_p y
track _
un map
_re ct
co s
'* '
Hash Table
exp and_
Äg f
_re move
ati ble
fre sh
Äa g
pe d_
Ä UN
ut ure
' n
s in_addr
IN V
ÄM agick
MA SK_
s_ s_str_
Äd l
Read y
Ä has_
err y_
variable s
config uration
ÄÄÄÄÄÄreturnÄ NULL
Gener ate
ÄR T
nx 2
ENTR YÄ
intern alÄ
__ _
HEIGH T
. 8
AC PI
map s
orizont al
C C_
mar t_
read_ data
C LO
ge ometry
mo oth
rag ma
sing le_
Ä arg_
w inÄ
y c
Ä add_
Äu 32Ä
change Ä
Ang le
ch or
Äd raw
_SE LEC
C pu
Ä au
jo urn
Ve hicle
nv km_
" L
ÄÄÄÄ ret
Äv p
ph ba
param sÄ
t ls
code cÄ
MODE Ä
mon th
_PAR AM
p cÄ
q la
al bu
command s
ke yp
caseÄ0x 0
le ep_
caseÄ P
sched ule
Pro p_
ÄreturnÄ FALSE
X 2
p ed
Z ip
own erÄ
ÄI o
ho t
123456 78
re m
_ val
Äm ark
xy z
F IN
structÄ s
cer t_
Ä bufferÄ
cu stom
m_ i
Äm i
Äv ol
e ap
ÄÄÄÄ rcÄ
'\ '
Äreg ion
ÄÄÄÄ result
out buf
Column s
A Y
TRAN SP
1 f
y leÄ
ul k
sa veÄ
Ämode Ä
UM N
ct lÄ
PyArg_ Parse
@ @
u g
7 _Ä
over ride
ched ule
NV "
" ;
Äp eer
ft p_
Vector Ä
Äch ain
ame l_
Ä send
us ing
Qu ant
ted "
asi o
sd p
state_ tÄ
fm t_
Äd s
RES OURCE
x attr
SD P
Äcomp ptr
' f'
on es
OFF SET_
IG N
CON FIG
NV Ä
ACCE SS_
Ä task_data
AC CESS
make_ pair
cli p_
Field s
cu stom_
ctx_ tÄ
Ä em
data "
Äc x
Pro vider
mp tr
d xÄ
co lour
Pass word
Äget env
_cur rent_
adv ance
Ä errÄ
MA IN_
lay outÄ
Plan e
h iÄ
LI B_
je ction
P ad
origin al_
` %s
ar ith
Äd ns_
go od
path s
Alloc ator
MODE L
Faile d
not ifyÄ
_c ntÄ
ST ORE
sele ctionÄ
pr_ err
_p ub
UN T_
ÄÄintÄ n
ÄA l
get Value
cur ren
Ä set_
ÄÄÄ charÄ
_pro c_
ff set
fail ure
"can 'tÄ
v "
Äc lo
ÄintÄ flags
_ key
ÄI S_
_S tr
bo _
f amilyÄ
ELEM ENT_
REQU IRE
linux_ side
evas_ object_
B LE
Ä1 e
Set Error
M id
p p_
ex ce
iv en
de cod
ÄÄ g_freeÄ
SD L
_C TRL_
AT A
loa ded
off _tÄ
ud p_
u v_
Ädi st
: ÄÄ
## ##
C nt
F L_
tx n
zer o_
Äs rcÄ
PR INT_
b '
ÄÄÄÄÄÄÄÄ P
po ch
Con figÄ
R AM
ÄA V_
Window s
timestamp Ä
Ä bu
cursor Ä
l un
p num
Ä raw
ve red
ha se
_SUCCESS Ä
intÄ j
BE AST_
C G
Äp g
ÄÄÄÄÄÄÄÄÄÄÄÄÄÄÄÄÄÄÄÄÄÄÄÄÄÄÄÄÄÄÄÄ ÄÄÄÄÄÄÄÄÄÄÄÄÄÄÄ
M IP
Cap ture
ÄÄÄÄ_test_ s_s_str_
r atio
ÄÄÄÄÄÄÄÄ w
B E_
"abc de"
ÄÄÄÄ_test_s_s_str_ s_s
n to
Ä long
ÄÄÄÄ st
d_ tÄ
MO VE
Mo ck
Äs cr
TH IS
Ä1 000000
he ight_
par ser_
el Ä
Är v
hd l
Äd one
alloc ated
_SOCKE T
CL U
type sÄ
PO S
SE L
VAR _
y es
g double
S la
Ä buffer_
s leep
ÄÄÄÄÄÄÄÄ constÄcharÄ
field sÄ
V ol
bje ct_
Ä uint32
Se quen
ÄÄÄÄÄÄ b
'_ '
L K
Ä TR
' ;
Ä rowÄ
structÄ k
si tor
so ap_
/ "
a z
ALPH A
R W
B rowser
LOCK Ä
_FOR MAT
_b ar
Color s
I ON
po st_
gintÄ _tmp
Ä keyÄ
ÄIm Vec2
ÄÄÄÄ K
el t
ER RE
code s
_re set
_t arget
ÄÄ retÄ
_S EQ
ATTRIBU TE
trans late
"ÄÄ -
S he
In _
EC H
_par ser
bot tomÄ
bod yÄ
" name"
Äst op
ÄÄ PyObjectÄ
Ä1 7
we ightÄ
objectÄ V
a ctÄ
m rb_
9 1
Äw asÄ
be gin_
Äbyte sÄ
Atom ic
in ate
che d_
"abcdefghij klmnopqr
Äpar t
P i
ÄÄ e
ÄÄÄÄÄÄ gst_
hdr _
_STR ING_
ÄS S
i veÄ
sequen ceÄ
re verse
v fs_
RO UND
k i
Än s
ÄÄÄÄÄÄÄÄÄÄÄÄelse ÄÄÄÄÄÄÄÄÄÄÄÄÄÄÄÄ
exter nÄ
F uncÄ
d yÄ
size s
no un
MO D_
ÄÄ memset
radi us
ÄÄÄÄ mp
L ong_
set_ bit
" set
il ityÄ
Mapp ing
ÄÄÄÄ J
t ing_
Get Next
load er
second sÄ
neigh bor
ho w
AB S
save d
Spe ed
v 8
' [
ÄÄÄÄÄÄÄÄ float
resol ve_
USER _
Äva_ arg
se lÄ
_F L
Mat ri
FLO W_
ti ces
aliz ed
out file
HT ML
PyErr_Set String
2 .
7 1
boo t_
w here
ER T
Re p
mo use_
l leg
Äk zalloc
\n" ÄÄÄÄÄÄÄÄ
scan ner
E FI_
n sÄ
x 0
name sÄ
Ä ce
Re questÄ
' d
G ra
ÄÄÄÄ continue
_t ÄÄ
Mod ified
F E_
t l_
ho ok_
_in sn
g_ hash_table_
Det ail
B lend
Ä ERROR
BUF SIZE
u gh
TypeÄ type
V U
ÄÄÄÄ state
0x ff
Ä5 12
Qu al
te ll
Al g
M X
Ä indentÄ
Channel s
" X
IN FORM
ÄÄÄ return
par ms
ÄÄÄÄÄ structÄ
Le ftÄ
shad er_
d rive
track er_
Ä6 Ä
PyArg_Parse Tuple
c cÄ
adap tor
th on
** *
structÄ__ecereNameSpace__ecere__com__ InstanceÄ
sample Ä
' e
de layÄ
iterator Ä
ÄÄÄÄ L
und le
label s
reg sÄ
ÄÄÄÄÄÄ G
ÄÄÄÄ sp
stan ces
Cal cul
en se
Äp ci_
T W
ro le
Äl l
RI PT
ÄÄÄÄÄÄÄÄ pÄ
sc at
I E
Def inition
I LI
__ecere Pointer_
cursor _
list_for_each_ entry
_P C
BEAST_ EXPECT
get Num
Pa int
s x
_in itÄ
inÄ theÄ
Ägo to
returnÄ p
abs olute
ÄÄÄÄ vector
alig nÄ
_C C
Äb aseÄ
_po st
Jo in
" file
9 8
ÄÄÄÄÄÄ elseÄ
at ur
EN DI
chr ono
ÄÄÄÄ errÄ
cha inÄ
ÄÄÄÄÄÄÄÄ delete
u charÄ
Ä LIB
ÄÄÄÄ iÄ
ÄÄÄÄ longÄ
I FI
l st
al go
ct ure
ÄÄÄÄÄÄ free
RE S_
RO LL
Se ek
wra pp
ele mÄ
may be_
pa ss_
addr _tÄ
TYPE_ P
returnÄ status
Ta gÄ
"Ä PRI
de lim
ifÄ definedÄ
head _
LIST Ä
ce sÄ
size "
( );
Äwr it
NULL _
GRO UP_
a o
constÄGL ubyte
D N
togg le
Äp rint
g lob
4 1
s alt
arg p
ok ie
_SUB R
FORE ACH
AS Y
x s
W ER
Än r
value_ tÄ
VIE WÄ
cat chÄ
storage _
le ad
Äx mm
png "
"Ä (
Äg lobal
vir t_
h older
_f n
" i
list_ get_
ÄN E
TH X_
RE F_
w b
DR M_
iss ing
typ Ä
tw o
ÄSD L_
Ä6 55
Wh ite
x 2Ä
ÄÄÄÄÄÄÄÄ z
op timiz
ÄÄÄÄintÄ retÄ
dk _pix
Sp ell
2x 00
Ä -
F low
Ä heightÄ
ÄÄÄÄÄÄÄÄÄÄÄÄÄÄÄÄÄÄÄÄÄÄÄÄÄÄÄÄÄÄÄÄ ÄÄÄÄÄÄÄÄÄÄÄÄÄÄÄÄÄÄÄ
IP H
_SER VER
ÄHPNode LayoutGet
b g_
dev Addr
k n
TH AT
ÄÄÄÄÄÄÄÄÄÄÄÄ retÄ
N ow
Äd b_
AUT O_
Äsk ip
Ex port
IL D
pthread_ mutex_lock
um nÄ
_CON TEXT_
au se
'# '
Än o_
PRO TO_
fe ed
ÄÄ outÄ
dra g_
return edÄ
act ual_
_c mp
intÄ len
Poly gon
Get Item
ÄÄÄÄintÄ ret
bi li
Äp ub
C MD
c d_
ation "
pk t_
_C o
DIS ABLE_
Wra pper
Äp hy
TI FF
hel p_
NT STATUS
el ifÄdefined
cr cÄ
opt sÄ
A ct
n fs_
Ät 2
_pro c
(%s )"
" couldÄnotÄ
err str
Ke y_
function _
'%s' \n"
i mp_
m allocÄ
cur l
F riend
ÄreturnÄ true
a bo
DBG Ä
_glewInfo_ GL_
i eÄ
ÄP H
constÄ uint8_tÄ
structÄ inodeÄ
Event s
ffff ffff
da yÄ
W AIT_
re name
ver se_
Group Ä
V M_
Äst orage
ÄÄÄÄÄÄÄÄ while
g_ warningÄ
CO MPLE
cre t_
x \n"
= 0x
ÄÄÄÄÄÄ m_
or rent
_p lay
Äre alloc
Äa rea
t fm
_p s
ÄintÄ x
v ma
D ay
re place_
Ä2 1
ol ate
Är s
built in
c ateg
Är d
Äht on
_in te
"w "
Ar row
Sample s
col l_
as sÄ
sensi tiveÄ
ge Ä
end ingÄ
temp or
U TÄ
g ap
Äpre v_
Äsy s
REGIST ER
fi _
range s
EN GIN
Äb f
5 2
er "
Äpar tition
ang les
P NG_
ÄÄ Äs
's '
Ä orig
ÄV 4L
TIM ER
FLO W
ATE ST_
Style Set
ÄÄÄÄ y
AT TER
di alogÄ
ee pro
Äsq rt
ÄÄÄÄÄÄÄÄÄÄÄÄÄÄÄÄ m_
MO DI
constra int
\ 0
HEAD ER_
% "
I den
Ä local_
quo ta
HD assert
REGIST ER_
ÄconstÄ Q
ÄÄÄÄÄÄÄÄÄÄÄÄÄÄÄÄÄÄÄÄ caseÄ
atom ic
ÄÄ lua_
vi sit
ÄÄ B
ÄP AR
glew GetProcAddress
'? '
D T
X t
ofÄ memory
REF ER
structÄsock addrÄ
t if
te cted
su bject
cal c
AN CE_
bf a_
R ing
RE SET_
Äq Ä
di rec
chr on
gboolean Ä_tmp
' x
V ICE_
Äsa ve_
UT TER_
n m_
screen Ä
_COM MAND
Äg boolean
am ma
_SE TÄ
s sid
_ST OP
Äh el
%d )\n"
list_ free
Äp y
Äy 2
Ä all
b dev
R_ OK
N TL
_f dÄ
v 6
get time
ED TL
ÄD T_
pix s
reason Ä
.2 f
un register_
Uni que
c iÄ
! !
V C
imp ort_
dr v_
lp fc_
_FOR MAT_
V is
Äcan cel
Ä or
Get Type
ÄÄÄÄÄÄÄÄÄÄÄÄ b
Co mb
P AGE_
p erÄ
an y_
rec ordÄ
T F_
st k
GO TO
T AS
J ANUS_
_SY STE
spca_ dev
P adding
initializ ed
255 19
TOG GLE_
Ä NUM_
clu sive
dec lÄ
Äa sÄ
Par tÄ
Ä v_
swit ch_
let on
f u
di ction
_par t
qu ant
Im Vec2
Position Ä
EXCEP TION
pro cÄ
ÄÄÄÄ xml
at temp
qu eÄ
vector Ä
reg round
AD E_
T ail
_p i
_CON T
Äde c
ÄÄÄÄ U
sele ctÄ
M ID
w dÄ
De scÄ
Ac quire
HAND L
Sn ap
ne ssÄ
ins n_
flush _
ALI ZE
Äd c
user data
No te
I I
Sp in
Ä limit
me mp
Äh i
16 _to
pre cision
TIC AL
Äp op
_ is_
Type Error
Äc ert
te red
compare _
sc ene
ÄÄÄÄÄÄ v
Äsp rintf
'\n 'Ä
ÄA c
" \x
w string
proto col_
DI V
trig ger
per io
Frame buffer
wa s_
window _set_
ini ti
raw Ä
Menu Item
_tmp 4_Ä
Äsqlite 3
P ic
Äd d
pro be
pack etÄ
_SH A
ss h
Äsw itchÄ
Äs m
ÄP h
ini tial
MC U_
RGB A
ch at_
v lan
pro mpt
arch ive
ÄÄÄÄÄÄ x
er_ tÄ
CO MM
samp _factor
member s
Ä0x 02
cm Obj
on ts
Pack etÄ
EF AULT
sv n_
output s
ÄÄÄÄÄÄ size_tÄ
Än ano
rep li
cp p
st uff
al ert
" %d
_P ORT_
compute _
To gg
Ver tices
E val
u 64Ä
ATEST_ VERIFY
ÄÄÄÄÄÄ constÄcharÄ
w t
PK IX
' 1
L ite
ÄÄ float
ÄÄ YGNode
ti c_
Äf ra
vertex _
F ontÄ
at s
RES H
b 0
_CON F_
MA J
ÄÄÄÄÄÄÄÄÄÄÄÄ n
tt y_
ps f
__m 128
size_ typeÄ
Ä string_
ÄÄÄÄ cÄ
_CO MPLE
fre qu
Ä lineÄ
constÄ float
sa mpl
_frame _
Ä y_
ab b
N api
g v
Ä event_
ÄÄÄÄ }
OUT PUT
8 "
Äa i
ÄÄÄÄÄÄÄÄ bool
gra v
NODE Ä
in dio_
ÄÄconstÄ intÄ
l ing
ju st_
SY NC
iffi es
ÄÄÄÄ new_
bu sÄ
(%d )
p adapter
endif ÄÄÄÄÄÄ
ini tial_
connection s
che me
n ic
Rec v
' ]
director y_
u c_
ÄM em
SI Z
"abcdefghij "
name spaceÄ
Ä heap
Äb ot
B g
rt c_
high Ä
File Info
bind ing
B us
b pÄ
UPDAT E
P eer
AT A_
roo m
' r'
virt ual
ll vm
sock opt
" read
d rop_
Ä ri
in y
ser o_
'n '
L V
Ad v
t cÄ
sum mary
aft er_
ÄÄÄÄÄÄÄÄÄÄÄÄÄÄÄÄÄÄÄÄÄÄÄÄ returnÄ
ÄW M
st u
unsignedÄintÄ iÄ
Äbyte s_
Is Empty
"abcdefghijklmnopqr st"
ÄÄÄÄÄÄÄÄÄÄÄÄ autoÄ
list_ empty
H WND
N IL
ÄÄÄÄ QString
widget_ get_
_ internal
f la
_cli ent
private_ data
callback s
t le
P NG
R tl
ÄÄ IN
FOR _
e c_
Exp and
c ation
ine t_
Äbuf len
TO P_
BL K
Ä hash_
OR TE_
as sign_
State ment
c str
RE P
ÄÄÄÄcaseÄ PROP_
cn ic_
F d
Wor ker
transaction _
d pÄ
n on_
Äbe st
MA KE_
je ctÄ
ÄÄÄÄÄÄ retÄ
ÄÄÄÄ lua_
Äp v
lend ar
TOK EN
AT CH_
Ät d
ÄPo int
lo ts
Äin it
VALID ATE_
ERROR_ INVALID_
_C TX_
equ al_
F mt
G PIO_
wa itÄ
ÄÄÄÄ CHECK_
_f ront
test_ bit
WIT H_
ASN 1
ÄD 3D
ft p
Ä queue
Äf eature
st ime
N L
Di alogÄ
sys log
. ÄÄ
sequen ce_
D ict_
caseÄ I
Äz Ä
' t'
B ACK_
in c_
Ä tile
F n
Buffer Size
bu sy
ag ain
s mp
Get Name
Äm m
Cur r
Be fore
e dit_
ÄÄÄÄÄÄ resultÄ
spec ified
ARG B
b b_
M is
f 1
th an
NT_ SUCCESS
ÄI O
Line ar
EXP EC
db p
3 D_
el s
ÄÄÄÄÄÄÄÄÄÄÄÄ free
returnÄret val
E ATEST_VERIFY
ST AT_
I TY
T ip
status_ tÄ
a sk
ÄÄÄÄ void
Äcontain er_
list "
unsignedÄ short
one "
r s_
T CHAR
sen t_
_pre v
seu do
l iter
co e
ex pÄ
_ g_object_unref
p m_
lic yÄ
P k
ÄÄÄÄÄÄÄÄÄÄÄÄÄÄÄÄ gotoÄ
ath er
ÄB R
ÄÄÄÄ vtk
ÄÄÄÄÄÄÄÄ ngx_
g_ error
bg av_
do cÄ
TR Y_
Äo c
chan Ä
M ENT
message s
E AT_
AC H_
list_ add
core Ä
"N otÄ
er_ set_
ERRE XIT
Ä method
_P Ä
pl r
trans form_
Äfaile dÄtoÄ
Ängx_ http_
Ä ed
ÄÄ data
ÄS SL_
D rive
F c
R atio
TION Ä
ÄT O
E mu
J PE
d q
u dp
8 _Ä
dat at
5 7
be fo
is digit
po se
gn m_
D up
r q_
Äde lete
Ä build_
ÄÄÄÄ snprintf
> <
G I_
PO LL
setting sÄ
_CL ASS
t b_
main ing
Adap ter
new _from_
ÄÄÄÄ long
tr ie
OR Y_
desk top
y 2Ä
TREE_ TYPEÄ
n d_
Ä layer
Äc 1
Ne g
sa s_
Äk rb
Arch ive
ÄÄreturnÄ res
aren a_
_C ACHE_
us ers
gener ate
CON ST_
attribute sÄ
b ed
ÄÄÄÄÄÄÄÄÄÄÄÄÄÄÄÄÄÄÄÄÄÄÄÄÄÄÄÄÄÄÄÄ ÄÄÄÄÄÄÄÄÄÄÄÄÄÄÄÄÄÄÄÄÄÄÄÄÄÄÄÄ
Äh ist
Äin it_
wr iter_
spe ed_
O pÄ
Ästr r
dir name
_priv ate_
iterator _
j mp
else ÄÄÄÄÄÄÄÄÄÄÄÄ
sw ap_
_CH ANGE
UM N_
C RE
ID E_
Ästr _
_CHAN NEL
Di rect
ÄP NG
Type Def
Param sÄ
PRIVATE Ä
d ap
h v
__ecereNameSpace__ecere__ sys_
Tim erÄ
Ä _p
sig Ä
string "
sla ve_
En coder
sub mit_
Ä Un
ra _
C P_
t mÄ
F REE_
age Ä
ALIG N_
n dev
Z STD
wx String
Ä__ecere Class_
0 .0f
Ä usb_
ar c
ÄÄ new
Ä inter
structÄ v
Main Window
Conver ter
8 2
sist ent
fi ci
Ähand ler
ÄÄÄÄÄÄÄÄ memset
Bot tom
lamb da
ÄÄÄÄ pix
[ 0
s v_
PTR _
extension s
constÄ C
con s
Äin sn
hwnd Dlg
co res
Är p
pre fix_
ne dÄ
si dÄ
Äi ss
ifdef ÄF
sl id
re alÄ
g_return_val_ if_fail
z i
strdup Ä
name space
Bo ard
AI L_
ret_ val
ÄÄÄÄÄÄ D
Äc d
METHO D_
ÄÄÄÄÄÄÄÄ data
is_ valid
S copeÄ
symbol _
ÄÄÄÄ TEST_
path name
16_to _cpu
Ädy namic_cast
ÄÄÄÄ exit
' c'
go o
_g_object_unref 0Ä
S F
case _
] )
\" :
requi red
AS M_
FOR M_
" 1
4 00
ÄM e
sup er_
Bo ok
ÄA u
P ending
Get Datum
G S_
sp aces
\r \n
n ic_
of sÄ
ke dÄ
Se ctor
DR V
it ter
ÄÄÄÄÄÄÄÄÄÄÄÄÄÄÄÄÄÄÄÄÄÄÄÄÄÄÄÄÄÄÄÄ ÄÄÄÄÄÄÄÄÄÄÄÄÄ
res ses
[ %
Ä__ FILE__
ateg y
constÄ G
Y G
Ä LOG_
daem on
go t_
MALL OC
D RA
UINT 64
v endor
v 3
Lo a
Ä_tmp 1_
_ h
d id
par ts
vec 3
AND Ä
GTK_WID GETÄ
dump_ file
U 8
i se_
m ip
w k
Är b
Äh b_
comm itÄ
line ar
i 1
ti st
ÄÄÄÄÄÄÄÄÄÄÄÄÄÄÄÄÄÄÄÄÄÄÄÄ if
ÄÄÄÄ list
_in i
M ath
ERR CODE_
" notÄ
W atch
g ree
D H
ÄÄÄÄÄÄÄÄ a
pro b
ED Ä
fi len
tmp 2
lan g_
referen ceÄ
n ing_
x d
Än il
lw s_
re p_
ÄÄÄÄÄÄÄÄÄÄÄÄ default
_f uncÄ
pa ssÄ
ALL OC_
disp o
ÄgpointerÄ user_data
Set Window
Di ctionary
L M_
_po int_
Ärec ord
lo _
s quare
_p lugin_
cont entÄ
EXPECT_ EQ
'd '
P en
ÄÄÄÄÄÄ fprintfÄ
ide _
edge Ä
MASK Ä
REQUE ST_
') '
For ce
Dig it
d sp
DE L
DO M
ÄÄ out
in struction
ne tÄ
Ser ial
En vironment
ELEM ENT
ÄÄ resultÄ
sÄ %
Ä map_
pr Ä
per tiesÄ
Ä0x0 3
" text
con Ä
li mb
reco gn
ÄÄÄÄÄÄÄÄÄÄÄÄreturnÄ true
rot ate
THREAD S
P AGE
c ard_
p B
di tÄ
'a 'Ä
bool ÄC
Ä listÄ
GET ARG_
default s
Get Data
ÄG F
comp ar
re pe
ÄÄEXPECT_ FALSE
Do m
oc te
GI C_
l ru
Buff er_
we ak
Äg en_
oc fs2_
cop ed
ÄÄÄÄÄÄ C
Ädi s
GD K_
_param sÄ
c 1Ä
REC Ä
a rent
ABLE Ä
f b_
" :Ä
Äf inish
Get Window
1_ BITS
View port
UD P
P ayload
por ter
' sÄ
PL U
p ick
Ä enc
Par ticle
M ag
h Wnd
comp lex
gb e_
DE LAY
ÄÄ __
CE SS_
EDTL S_S
m time
SER _
VI SI
GB E_
found "
d le
S v
BUFFER _SIZE
_re cor
O V
er red_
GLOB AL
pro vider
pg m
"Co uldn'tÄ
ÄS PI
Key board
serializ e
f n_
k o
Ro le
Ä ve
he al
Äx l
sche me
ÄÄ unsignedÄcharÄ
ÄÄÄÄ connect
ÄE INTR
eff ect
GD AL
" V
Äcol Ä
Sp rite
xml CharÄ
stride Ä
F old
H EL
P R_
END Ä
Äser ver_
comp Ä
defined "
matri xÄ
_ state
s un
ata ble
WARN_ ON
Ch at
Ä AI
io v_
TIME ST
gr adi
VERSION Ä
bo und_
ag er
" =
G A
Är d_
UP P
Out putÄ
"- "
r val
list s
glyp hs
_b h
sock addr
P an
GET_ CODEÄ
zer oÄ
Bu ilt
_bit sÄ
ÄÄÄÄ node
chan _
%0 4
sp ell
Ac cept
visible Ä
"Th isÄ
TI NU
Änet dev_priv
= %u
stru ctionÄ
OR TÄ
wa sÄ
th rowÄ
ex ternal
ex ample
ÄÄÄÄÄÄÄÄÄÄÄÄÄ ifÄ
BUF _SIZE
Äe ina_
_po ints
Äb ind
W STR
bi tr
Ä indent
ad c
M b
au x_
fre qÄ
WIT H
N ING
REG 32
we en
end ing_
Äl s
sd b_
Byte Ä
"Error :Ä
c lock_
G LA
r "
Ä TEST_
pa g
enable Ä
time s
w r_
In v
Äg c
pl s
faile d"
ck Ä
a 0
s_ t
f gets
re o
li t_
Ä copy_
ctor _
J OB
em u
Int 64
Äcont ent
NO TE
ÄÄÄÄÄÄ l
Äf in
I p
ÄI S
png_ byte
POINT ER_
Li brary
Do main
miss ing
ST OP
ÄÄÄÄÄÄÄÄ LOG
PAR ATOR
for_ea ch
d ur
sprintf Ä
5 "
UN DEFINED
- boxes
pre pare
Cap acity
cover y
L ONG_
k ill_
in clu
Ä RO
Ä0x0 f
__ecere Method_
" a"
si lon
X T_
L AST
make_ unique
unsignedÄ iÄ
Äcur rentÄ
p d_
Ä title
ret_ value
r pÄ
sub stream
throw Ästd
Äname _
QUE UE
staticÄ constÄcharÄ
pd f
_SP EC
d \n"
work er_
) ,
Äite ms
error sÄ
OP CODE_
toggle_ button_
INFORM ATION
st or
SE LECT
eas y_
Ä0x 40
ÄG LE
se cs
extra -
ÄÄÄÄÄÄÄÄ exit
rid ge
Äc atchÄ
ÄÄÄÄÄÄÄÄÄÄÄÄ C
Ät ree_
op 2
TO OL
Channel Ä
Ä Data
cy c
bn ail
Bo x_
Tool s
volat ile
ter mÄ
Äre ply
hash cat
pla y_
Dest ination
Äk ernel
OUT_ OF_
P ick
n /
Ä la
BO X_
) ,Ä
addr s
UT E_
wchar _tÄ
Ä fileÄ
. 3
sÄ forÄ
OR D_
MB EDTLS_
R R
ma ind
Äs uccess
filter s
Äpro p_
module s
data _tÄ
c ted_
ÄÄÄÄ strcpy
re peat
P ipe
ad r
control s
pla ceÄ
H 2
I L_
double Äx
_SER VER_
combo_ box_
P e
Ad just
ÄÄÄÄ Q_
jo bÄ
ÄÄ set
ic eÄ
Äbod y
up stream_
te ct
add ingÄ
x data
se par
structÄ usb_
ÄF alse
addr info
Äpar am_
bin ary_
Align ment
5 1
K H
f loor
sÄ are
man age
"un ableÄtoÄ
level s
G MT_
p st
v p_
FI LL
shoul d_
mar sh
\t \t
pol l
N D_
f puts
structÄ pci_
pro cessÄ
_can cel
'\' '
C _P
SY M
Int errup
c f_
Äe 2
ÄÄÄÄÄÄÄÄÄÄÄÄ d
get_ data
ag ent_
Ä_tmp 0_
ne mon
Äm is
GR AP
sk b_
u iÄ
Ä mp_
ÄÄÄÄÄÄÄÄ l
Äi dent
C _S
tr u
6 3
ÄÄÄÄÄÄÄÄÄÄÄÄÄÄÄÄ gf_logÄ
button s
'% '
W ire
b on
Äp ayload
alloc ate_
List en
I AL
Ä int32
c map
Äp n
gr id_
Run ning
invalid _
t db
mp ler
DI GIT
source_ p
par tÄ
ÄintÄ size
Vari antÄ
ict ure
' @
T cl_
Re tÄ
go ing
CE LL
Le g
======== ========
c ategory
= %d"
menu Ä
nex p
_in put
ÄÄÄÄg charÄ
ÄÄÄÄ string
bf d_
h uff
ÄG P
u data
=Ä "Ä
M argin
P red
V cb
ta ke
ÄG U
scan Ä
indio_ dev
g lobus_
pth read
p list
st_ size
acce pt_
TO _POINTER
C ard
ti es_
weight s
S mall
str ibu
"Un known
A F_
Ä uri
ID ENTI
Te am
data_ size
'e '
bt n
NGX_ ERROR
XY Z
%s ,
cur red
Ä expected
th d
Bu ddy
PFNGL GET
road cast
Äb ig
ver b
ÄintÄ iÄ
f ontÄ
se pÄ
Ä Value
vo ice
' <
p y_
Är and
re setÄ
S 2
Äp w
std in
ass oci
_in put_
u er
dup _
N oÄ
Äp spec
_P IX
DI _
M ul
b rush
'> '
u dev
Ä EX
_c al
monitor _
Ä Log
ch ipÄ
0x 1
RES OURCE_
Äoper ator
ÄgpointerÄ data
2 .0
fold er_
Äp kt
sock fd
_S UPPORTED
ÄM ax
iterator ÄitÄ
AU DIO
resour ceÄ
area Ä
obj _tÄ
ret_ valueÄ
C TRL
_name s
sci i
QUER Y_
ÄÄ self
_p in
Äsy n
inte gerÄ
G nm
sor ted
gn c_
ÄÄÄÄÄÄÄÄÄÄÄÄ i
IN LINE
_C ANCE
back up
" rb
S Z
ul ongÄ
Co st
_STR UC
" get
auth oriz
F atal
st p
ac countÄ
data_ len
m_ get_
UNLOCK Ä
buffer_ get_
Ini tial
buffe rev
C amel
Äma ke
f lash
Ä Status
cur rÄ
_tmp 5_Ä
el ist
d ateÄ
IR Q_
allow _
" de
g y
BO T
Comp iler
Hash TableÄ
n an
Ä check_
_c l
sen s
tra ct
M ix
ÄÄÄÄÄÄ r
char sÄ
Ä cache_
Äg_strdup _printf
Äcon st_
j it_
Äre mote
ÄÄg intÄ
_c re
int8 _tÄ
AS SIG
ss p
Conta ct
p l_
bool Äb
[ -
staticÄ PyObjectÄ
Ärange _
T B
"/ extra-
/gnome -boxes
data/ checkout/gnome
"/extra- data/checkout/gnome
/gnome-boxes /src/
"/extra-data/checkout/gnome /gnome-boxes/src/
br an
n f
Äg ra
_flag Ä
dec l_
MAT RI
pa _
shif t_
cla use
Ä dev_
_P LU
_s ur
mo ck_
radi ent
buck etÄ
' b'
CT L
Lay outÄ
Ä stateÄ
s at
th ys
Äp f
Comp on
Source /
Callback Ä
mail _
answ er
9 3
FI FO
Ä LO
Ä US
Re ser
IC K
int o
= Ä"
c lon
ST Ä
per m
ÄT ime
Äex ec
Äser vice
INIT_ LIST_HEAD
rege x_
LD AP
0 .5f
se curity
'A 'Ä
E P_
i as
G ER_
ÄÄÄÄ statusÄ
de si
cf gÄ
handl ers
compres sed_
wchar _t
f ptr
By Name
conver tÄ
ÄÄÄÄÄÄÄÄÄÄÄÄ for
Re cur
CON NEC
EIN A_
Äv olume
ON N
Get Extension
_parameter s
ÄA LL
B ond
R F
Äp lay
d printk
m n
Iterator Ä
er tÄ
el ls
width _
' l
_PAR SE_
Ä ff
set Enabled
sn d
4 3_
a mount
ol Ä
F ra
Ä mem_
check ed
capa bili
_c bÄ
unge on
% ld
vi ces
wa ke_
ÄÄÄÄ add
ÄÄÄ D
Äd a
Se ed
20 _
Äcan 'tÄ
Anim ation
ÄS ize
mar ty
M Q
ÄÄÄÄÄÄ t
bu gÄ
Äm k
rad io
remain ing
H i
ex act
ver seÄ
sq rt
dy namic
EE D_
Ap ply
Extra ct
b ank
x id
re ct_
tracker /src/
"/home/ marty
n/ Source/
"/home/marty n/Source/
ÄÄ rtxÄ
Modu leÄ
size_tÄ size
i mm
Col lision
sensor _
ÄNULL _TREE
g spca_dev
ato i
ÄÄÄÄG st
" ÄÄÄÄÄÄÄÄÄÄÄÄ
tr ap
Änum Ä
adap ter_
input s
De sk
Äde st_
BIN D
WA Y
O Ä
R V
_info _
Äfail ure
. png"
se cret_
fa ctory
Add rÄ
ÄA U
Ca ch
Pixel s
ÄID C_
snprintf Ä
structÄ fileÄ
mode s
havi or
ÄÄÄÄg_ free
Struct ure
O B_
Ä stats
lat form_
Äap r_
en dian
Im g
" http
En cryp
Äne ed
V F
Äms gÄ
Clip board
off s
r ng
RO P
Inst all
C r
in di
FUNC TION_
Qu it
P ACK
S im
fa st_
pe g
ENDI AN
SC AL
ÄV e
E q
a che
Ä0x3 f
ÄÄÄÄÄÄÄÄ buf
mp eg
ERR _PTR
_ST AT_
RE ND
lx c_
Äwa it
o idÄ
Ä0x 0000
pa inter
caseÄ0x E
complete _
_CONTR OL_
L IT
Ä 32Ä
S '
chunk s
Ä field_
returnÄ i
AF K
ent er_
9 _Ä
s With
ÄÄÄÄÄÄÄÄ rcÄ
Äp thread_
dir tyÄ
5 3
ifie d_
_pow er_
B RE
cp l
S in
SC M
sk_ buffÄ
bar "
on ly_
En dian
Äin stance
Dir ty
ac ces
UN IF
n ative_
Äm ar
reg ul
Äcontainer_ of
MODU LE
ali as_
le t_
T AB
T bl
z "
ÄD B_
HP Node
LIGH T_
g imple_
Äde cl
Disp atch
L N
Äc at
Page Ä
RELE ASE
pix map
E SC
Ä OPT_
CON T
ÄÄÄÄÄÄÄÄ lenÄ
ren gth
ALL OW_
Ä adapter
LO PT_
A rc
p File
CH ANGE
Bra sero
Ms gÄ
or ity_
Äs v
dir ty_
m g_
ÄÄÄÄ Test
Är ule
ÄN o
constÄ void
_SUBR ARGS
d urationÄ
ID X
ATI VE_
Äsy stem
a sc
st _pad
OP EN_
ab s_
D OC
l ar
Ä cap
Po se
Alloc ation
need s_
su reÄ
13 0
Ne ed
Ä do_
INT_ TO_POINTER
p endÄ
node _get_
link s
" K
E lemÄ
usage Ä
H AS
ad min
count s
p C
Ä domain
re la
err _tÄ
e- 01
g_ variant_
" key
f 2
time _t
Äb g
ip c_
ÄÄg_ assertÄ
sched ule_
sh ell_
Comp ile
_ index
Äv m
rt 2x00
b trfs_
Äse l
ast l
Ät b
Byte ArrayÄ
ÄÄÄÄASSERT_ TRUE
BUIL D_
func s
structÄ i2c_
Är x
BO XÄ
ÄÄÄÄcharÄ buf
if o
" :"
se en
TI T
c ro
_P AGE_
Se curity
wx T
WID GETÄ
Äpo st
h 1
Re as
pro to_
Äch unk_
pop up
g_ value_set_
tim ing
re vision
Par amÄ
gn or
ÄGL FW_
' ('
ÄÄ str
s_ p
unk nown_
interp ret
FE ATURE_
; }
fo ur
ing er
sche d_
" ÄÄÄÄÄÄÄ
K AFK
Äc lear
s2 n_
D UP
ENCOD ING_
S UPPOR
U F
Äp ort_
au d
ÄCur rent
h "
reg no
sub Ä
ÄÄÄÄf close
Mar ker
Äm t
Äu id
intÄ error
gtk_ text_
runtime_ error
F UNC_
_S TY
Äd up
mat erial
OP T
Path s
Ä_tmp 2_
. 6
Äf ace
Äcli p
ÄP K
dev_ info
ck p
AS CI
ÄGet attr
dbus_ message_
tb l_
X509 _
ÄÄÄÄÄÄÄÄÄÄÄÄÄÄ caseÄ0x
Ac c
Edge s
Ä store
id sÄ
par seÄ
ctr lÄ
nee ded
Re qui
inc ip
GtkTreeIterÄ iter
se archÄ
Äc la
o und
ÄÄÄÄÄÄÄÄ K
Valid ate
hal f
structÄ x
X F
ÄÄ buf
prog ress_
MET AD
" |
test s
ev Ä
XML SEC_
C b
cho ice
char ÄÄÄ
ÄÄÄÄ xÄ
_C OPY
I A
ca useÄ
caseÄ C
LENGTH Ä
ec t_
F s
p ragma
Ä Load
sh r
_in sert
ÄX ML_
d f_
ÄÄÄÄ close
lo bÄ
hel lo
n av
De fin
Ädisp lay
ÄÄÄÄÄÄÄÄ str
at t_
un _
St yleÄ
AM D
Äop Ä
ÄÄÄÄ FILEÄ
ÄS h
sv g
Trig ger
icon Ä
Ä0xff ffffff
si ve_
li ve_
_CLI ENT_
_S UPPOR
ÄÄÄÄÄÄÄÄ double
Name space
. txt
ÄÄÄÄ do
ru leÄ
h f
l t_
c dev
'[ '
c yÄ
Äp ush
Äh 2
defin e_
Type DefÄ
_CON TEXT
] ,Ä
.. ..
gam ma
i op
endif ÄÄÄÄÄÄÄÄÄÄÄÄ
Sy ste
Tree Node
extra ct
P D
rtl priv
DO MAIN
ÄI SC_
play er_
ÄÄ memcpy
ÄS cm_
__ FILE__
p ur
Äm rb_
:Ä %d
ENT ER_
Match er
Disp layÄ
U pper
tr ust
_pro be
BIT SÄ
de li
al len
_S K
entry_ get_
ÄÄ M
get String
mo s
Cur l_
bucket s
TOGGLE_ BUTTON
ct ype
AT OR_
interrup t
Äf a
Äz ero
di gest_
Äso ap
ÄÄÄÄÄÄ j
seto f
Äb 2
Ar gÄ
Ser verÄ
_in ner_
isc si_
vec 2
C op
v '
ifÄ (
allow ed
DI FF
endif ÄÄÄ
GU ID
_p ipe
loc ity
ÄC _
escap e_
"Y ou
p 1Ä
ÄÄ set_
SH AD
_C reate
Bind ing
'x '
. c"
IN E
In f
NGX_ LOG_
ÄG dk
ÄÄÄÄcaseÄ GST_
_point erÄ
sa Ä
'; '
8 99
AR Y_
Äbase _
ÄÄ CHECK
caseÄ V
Äg rid
BY TE_
Mod ifier
wh i
LOC AL_
ÄPG_ GETARG_
W X
Ä2 6
Äd ate
buf_ len
bo ardÄ
m f_
z oneÄ
ÄÄ assertÄ
GtkTree ModelÄ
char set_
th er_
strl cpy
attr sÄ
arg 1Ä
ÄÄÄÄg lobus_
Ähton l
RESUL TÄ
" true
Ä low
ÄÄÄ elseÄifÄ
O ther
e h
v box
node sÄ
constan t_
ÄÄÄÄ test_
Än oÄ
u 3
T wo
S_ OK
DE F_
Ä Buffer
F OLD
mp t_
g_ strcmp
Äcur r_
call_ frame
ren dere
Äy ou
no st
PAR AM_
GU I_
IN O
Äite m_
D er
D uration
_ e_
ÄP R_
s_ size
ÄF L_
go ti
Un defined
Pre view
_put s
ÄÄÄÄÄÄÄÄ out
ÄÄÄÄÄÄ assert
n_ cast
cho os
voidÄ __
_e lem
cc v_
spli tÄ
d one_
_page Ä
Ä De
ÄM P_
Äch ild_
Ex pect
Äm allocÄ
ÄintÄ argc
t re
AS SE
ÄÄ info
FF F
TS S_
ÄÄÄÄ ui
disable d
luster d_
REC ORD
Dire ctor
L ON
_p ad_
pr _debug
TT L
ÄZ END_
ol l_
\n" ÄÄÄÄÄÄÄÄÄÄÄÄÄÄÄÄÄÄÄÄÄÄÄÄÄÄÄÄÄ
DAT E
JANUS_ LOG
Äpo ints
_C _
run ningÄ
Fil terÄ
ac y
qu ir
SIG NAL
goto Äb
z oo
call Ä
ÄÄÄÄ I
e o
ÄÄÄÄÄÄÄÄÄÄ forÄ
Quo te
; Ä
" unknown
RE L
Quer yÄ
ut down
ÄS LA
las ses
Äop ts
mapp ed
signature Ä
n ers
play list
_base _
ÄÄ R
to po
ser ial_
Äin s
anch or
str 2
_F AILED
UNLIKE LY
ERROR_ INT
alle dÄ
IP E
ÄÄÄÄ check
constÄ uint8_t
ou te
Äj anus_
NUM ER
Ä meta
log y
_p ending
alloc atedÄ
cmp _
APP END
Äbound s
e log
LO T_
Äu 16
t 1Ä
ÄÄ uint64_tÄ
ÄSW IG_
T reeÄ
ec ted
BU G
ar ity
ÄÄÄÄÄÄÄÄÄÄ if
sk ipÄ
th unk
'- 'Ä
Meta Object
H ot
V PROC
p sÄ
Ä To
Äg charÄ
size_tÄ n
_in Ä
sca pe
dy namic_
Name "
net if_
assert_ cmp
P 2
ig n_
Ä button
el f
Ätmp 2
ato mÄ
dec imal
Ä LE
ÄÄÄÄÄÄÄÄ ctx
rg b_
Head ers
P END
Ca ched
%02 d
_PH Y
' i
r ingÄ
t 2Ä
ÄÄÄÄ print_
ret_ valÄ
Quant um
G da
dat um
Ä L_
ro ker
Äf abs
READ Ä
LO BUS_
ÄE IN
Z 3_
ERROR _PTR
f ullÄ
_St at
ingÄ theÄ
HP DF_
Togg le
c dr
net snmp_
Cur ve
A jP
E K_
S ta
Co ords
Ref Nan
asci i
'1 '
RefNan ny
t 0
over lay
' {
ÄG W
sw oo
m illi
UN _
de no
Te stÄ
ÄÄASSERT_ TRUE
Matri xÄ
k 1
An not
Äcpu_to_le 32
ÄJ ERR_
conta ct_
' h
A gg
c lÄ
ÄM at
_SETT ING
st ers
ÄÄÄÄÄÄ gotoÄ
obj p
ACKE T
x free
mar yÄ
me sa_
Än k_
DB Ä
IS SET
In t_
Get NumberOf
_c lean
_P ORT
Ag ent
O WN
s_ set_
go t
Äre po
'/ 'Ä
exp ort_
to Int
symbol s
Äme sh
ÄGET JSAMPLE
Äh p
Äs cope
dic ate
wal k_
ÄÄÄÄÄÄÄÄ statusÄ
dum my_
list_ headÄ
Ori ent
pa int
Lo ok
" l
Äsp e
A lig
_to _be
ÄÄÄÄÄÄÄÄ gotoÄout
ERROR S_
_SC AL
B G
ÄÄ Q
in buf
Äarg cÄ
Äch ip
P ipeline
RUN _
GLA D_
Ä index_
uni x_
A W
b len
server s
p spec
Äw ar
Äde bug
Ali as
n i_
ÄÄ Äc
d ge
L ang
can vas_
_c at
image s
with Ä
_SH ARE
ch ro
load er_
min ute
M S_
re size_
12 3
Build erÄ
Is Supported
pad Ä
sys fs_
m ad
async_ result_
ÄÄÄÄÄÄÄÄ j
ation sÄ
back Ä
_ new
b lu
m_ f
_c lassÄ
av a_
Arg sÄ
Spec ial
Transp ort
C K_
ÄÄÄÄÄÄÄÄÄÄÄÄ snprintf
dev /
Äu 8x
T argetÄ
s VarÄ
str lenÄ
_pro file
luaL_ check
p w_
Comp ressed
COMP ARE
R x
ÄÄÄÄÄÄÄÄ GF_
l_ id
ifdef ÄCONFIG_
CLAS S_
previ ous_
Ä auth
Ä USB_
str buf
Äre t_
_ file
Sp aceÄ
decl ar
Ä TEXT
option al
Sp an
structÄ e
Äsc ript
backg round_
UINT 8
q p_
u wsgi
structÄ p
list_ store_
medi ate
CL K
label _set_
4 9
a es_
In verse
) )
_ idÄ
ÄÄ k
bool Äis_
'] '
' $
size_tÄ len
si x_
handle _tÄ
ATE G
Type "
Ä__ecere Pointer_
D ER
_S AF
C ACHE_
ÄÄÄÄÄÄÄÄ k
ge om
Down load
PROPER TY_
mem berÄ
AN G
_parent_ class
v dev
li _
ui te
vid erÄ
Äi2 c_
X T
p ic
sit yÄ
Ä100 Ä
th erÄ
ÄF OR
inser tÄ
Äi x
i map
Ä stream_
ul d
Äg otÄ
cel lÄ
Äre p
samp ler
al tern
al way
Get Instance
ge ome
_po st_
Äu c
ÄTRUE Ä
C mp
l p_
_P K
Metho dÄ
ÄC S
Conne cted
intÄ nÄ
_f eature
camer a_
ÄÄÄÄ error
ha ve
FI C
Äx ml_
OP Y_
Program Uniform
:Ä un
can on
d rag
ÄÄÄÄÄÄÄÄ gtk_
tick s
p du
_S TE
buf lenÄ
ÄS OCK
An sw
Ästrr chr
g fs_
ÄÄÄÄÄÄÄÄÄÄÄÄÄÄÄÄ whileÄ
_C AST
mm c
ÄÄÄÄÄÄelse ÄÄÄÄÄÄ
ÄÄÄ constÄ
header s_
_m ulti
BIN ARY
S tage
ERR UP
avail Ä
g uint32
bu d
Set Value
" GL
F N
Ä1 0000
Co ordÄ
ex clu
_F LO
_id xÄ
ML S_C
J DIMENSION
ÄÄÄÄÄÄÄÄÄÄÄÄ elseÄ
client s
Point erÄ
Thread s
mut able_
AU TH_
termin al
legac y_
H EX
ca stÄ
_c ryp
gener ator
U TE
clas ses
m icro
Ä INVALID_
si du
she et_
Command Line
initializ edÄ
p io
Äa v_
1_ error
19 2
- "
0 ,
dic ator
pro ject_
.1 f
be a
Be st
Ä orig_
ÄÄ delete
ifdef Ä__
ÄVe ctor
Äc ard
cr m_
util s_
ar get_
un kÄ
ÄÄÄÄÄÄÄÄÄÄÄÄ r
ÄF ormat
.. /
ÄÄÄÄÄÄÄÄÄÄÄÄÄÄÄ ifÄ
U ART_
fil lÄ
GL_ TEXTURE_
ÄN ET
sho t_
Äf r
see kÄ
ÄÄÄÄ Get
inte gr
IN Ä
_s up
Cont ents
Ä% p
Pub lic
seg mentÄ
cal led
JS AMP
G T_
buf s
Pro g
ÄÄ iÄ
str ict
con v_
di v_
TR ACK
Ä Node
se cur
Äb _
g w
i ed
ml me
c y_
d cc
up gra
ce p
ÄÄÄÄngx_ http_
write_ reg
US R
Ä8 0
vi ce_
par sed
Ämat rix
sh m
RE PORT_
_f e
mon o
pool Ä
activ ate_
comp ptr
ll http_
Äcur Ä
GL FW_
tool _
char Äc
C ategory
lf s_
Adv ance
de p_
ÄÄÄÄÄÄÄÄÄÄÄÄÄÄÄÄ constÄ
TR IG
EDTLS_S SL_
ÄÄÄÄ cpl_
%s .
cel ls
maj orÄ
un ix
T K_
TC L_
emp lace
R ank
ÄÄÄÄÄÄÄÄÄÄÄÄÄÄÄÄ returnÄ0
Print Ext
Äptr _
D if
ot mp
fin alizeÄ
re sp_
String s
t pÄ
Äpro perty
Process or
simple_ async_result_
RIGHT_ SHIFT
Äf _
get_ dataÄ
Ä size_t
MODE LÄ
Ab ort
type_ tÄ
sb i
Äopt arg
TOK EN_
String Info
mod ifier
Äma xÄ
up per_
_tmp 6_Ä
\" :Ä
m yÄ
Äi v
state_ data
P ress
EX TER
int16 _tÄ
' F
Ä builder
Ä core
5 8
F ROM
de penden
Re fresh
set ting_
side Ä
bound ary
ÄÄ longÄ
ele ms
P AD
b map
v el
et aÄ
Än g
Data set
F in
ÄM y
we ap
L C_
Äm an
rc v
sn mp
Änew ÄC
min or_
\"%s\" \n"
"* "
ÄH E
bar Ä
u h
Ä lookup
thro tt
AD C_
Test s
t d_
ÄÄÄÄ test
Äpo inter
_destro yÄ
comm ent_
game _
ÄÄÄÄÄÄÄÄ in
ÄÄÄÄÄÄÄÄÄÄÄÄ charÄ
ÄÄÄÄc info
tr ue_
PRO GRAM
p q
el f_
g ain
Ä_tmp 0_Ä
ti ble
di stanceÄ
Äd at
be g
number Of
buf_ sizeÄ
N EXT_
ÄÄÄÄÄÄÄÄÄÄÄÄÄÄÄÄÄÄÄÄ if
LI ENT_
Äpage _
l h
caseÄ 3
Short cut
staticÄ structÄ
ÄÄÄÄ m_p
ingÄ forÄ
UM P_
al ive
Äl psz
sub scri
NUM Ä
ÄGF_ LOG_ERROR
C LE
s info
ÄÄ my_
CT L_
Ä OR
fÄ %
u_ long
Ä ta
ÄÄÄÄÄÄÄÄ errÄ
intÄ index
Ä0x7 f
Emit ter
x 86
comm entÄ
compon entÄ
C OR
Ä Type
ac quire
sp trÄ
_C TX
ÄE V_
BO UND
m nt
CUR SOR
VECT OR
SP I_
rd p_
end ptr
MA GIC_
sub vol
mg r_
n p_
LEN _
vari able_
si x
ÄÄÄ E_
comp il
ÄV AR
C luster
flag s_
Modu le_
_pro gram_
anag er_
NAME SPACE
An chor
int16 _t
S lider
E valu
TR UNC
memory_ order_
" To
j _de
set_ errorÄ
comp atible
LIM IT_
F ront
e si
% i
ÄÄÄÄreturnÄ m_
re start_
C OPY
b rowser
iz ed
Sh ell
if ÄÄ
' p
f use
Äg lobal_
bit mapÄ
w w
Äf req
CH E
CO ORD
string_ view
nexp ectedÄ
S ent
Än c
ÄS p
TS R
receive dÄ
s cope_
ÄÄ A
do es
structÄ ast_
IR E_
_block s
"b ad
Äi o_
feren ceÄ
segment s
' m
E BUSY
op s_
ÄÄÄÄÄÄÄÄ X
Äwrite _
H alf
ÄÄÄÄÄÄÄÄ tmp
ÄH5 E_
F amily
ÄM ON
ÄPO LL
BOT TO
P C_
spec ifiedÄ
s_ len
rt l_
servi ceÄ
proto colÄ
F A
Äe 1
Äk w
cr tc
_f aile
Äx strdup
v k
on ce
pre _
ÄÄÄÄÄÄÄÄÄÄÄÄÄÄ break
feature _
1 ,
jo in_
UINT 16
iden tity
_PROTO COL_
ÄÄÄÄÄÄÄÄ elseÄif
Äre sp
build er_get_
4 f
Ä ERR_
j or
io c_
Ä4 2
Äout putÄ
F inal
void Äc
up load
gotoÄ err_
10 _Ä
ar i
Lo gÄ
count er_
_e lement
op_ errno
Ä OB
exist sÄ
hash table
sub st
p 0
r v_
"Ä -
MP U
er ic
er ature
G RESS
H W_
T OR
TIM ER_
_pool _
ÄÄtt_ int_op
C 0
d set
Äc lass_
Node Ptr
en ou
_f s_
finish ed
H P_
ifdef ÄPNG_
VIE W_
REMO VE
ÄI2 C_
Äres ult_
Äser verÄ
Send Message
Ä__pyx_ t_
Äf rom_
pro x
Äj sv
IS H
_p ayload
filename _
slur m_
' }
Z oom
ÄE TH_
ÄX ML
G RE
ÄÄÄÄ int64_tÄ
STR O
ÄO B_
Pre sent
r _p
form ationÄ
Max imum
_COM MAND_
er arch
SCM_ i
_b b
ÄI Ä
ft erÄ
cap acityÄ
STAT IC
F ROM_
ÄÄÄÄÄÄÄÄÄÄÄÄ switchÄ
bu ildÄ
bo ur
" 0x
1 .0Ä
a k_
_p ci_
ive d
'. 'Ä
RO OT
\t "
18 n
P OL
2 str
Lo cÄ
bl ank
ORD ER_
rout er
gettime of
Ke ep
if r
%d )
UL ONG_
Äb s
UN IX
va_listÄ ap
FILEN O
ÄC PL_
P ID
sample sÄ
_pool _tÄ
sector s
" q
o mpi_
msg s
'@ '
c ptr
ÄÄÄÄÄÄÄÄÄÄÄÄ resultÄ
gam gi_
Äpd f_
Ä ap_
Ch ildÄ
CONTR OL
u_ char
if ace_
' E
pl us
let ter
multi p
encod er_
She et
C V
ÄÄ check
sh m_
requ ency
Äsp ace
ÄD X
ARCH IVE_
fol k
' Z
Sp acing
BYTE Ä
else ÄÄÄÄÄÄÄÄ
ON LYÄ
capt ure_
if p
m k_
n utls_
CO VER
AI R
PATH_ MAX
DI GE
i w
latpa k_
Un do
U TI
s mart_
ev http_
num _p
UN SIG
z oom
ÄÄ H
" pix
Ä default
ÄÄ pÄ
rg ba
exp lain_
gr ad
Äo ct
MAN AG
Ästrto l
ab ort_
Äg_ string_
'l '
Ä0x 000
db c
sup port
' z
list_ del
c rop_
S LA
ÄÄreturnÄ FALSE
work space
Var s
X 86_
e 0
SE TT
Rec ordÄ
widget_ set_
FI ER
Äu Ä
Ämem cmp
virt ual_
ÄL V_
_s cale
see k_
l pÄ
get Node
Ät 0
ass oc_
0x 7
R ATE
g_ slist_
Ätime stamp
thresh oldÄ
flat _insn
INT ERRUP
_in t_
ÄO F
100 _
Wait For
C txÄ
10 k_
semb ly
present ation
D en
Ä lin
ÄÄÄÄ O
tou ch
_po s_
NE D_
buffer_ sizeÄ
TIMEST AMP
C F_
ÄÄ in
Äg r
ef x
PASS 1_BITS
" j
_pro xy
content sÄ
ste ps
"rb "
H T_
un register
ÄC F
reg map
ÄM o
change s
_inser t_
ÄHTT P_
un do_
ÄH5 E_C
Ä Key
ÄÄ elseÄif
ÄÄÄÄÄÄÄÄ PKIX_
St encil
_PRI VATE
imp l_
"\" "
task s
FIR ST_
ÄÄ long
in til
_c or
MP LE_
c ms
g uint
mon ster
sd sÄ
tun nel
Oc curred
N b
Äf dÄ
_f p
column sÄ
mpt yÄ
Äm v
intil la
ÄG EN
Argument s
ÄS er
Äw pa
Un signed
top level
Sh ap
RO _
ÄO_RD ONLY
handsha ke
AL EN
pro be_
ÄÄÄÄÄÄÄÄreturnÄ TRUE
version "
ÄÄÄÄ sizeÄ
al ice
info "
age _
error_ set
or c_
com m_
TC P_
" \r\n"
on y
ÄC MD_
_inser tÄ
get text
_re al
DE STRO
SL JIT_
G Object
ÄÄÄ whileÄ
Äc trl
Är ing
staticÄ constÄ
_STAT IC
p Äpng_ptr
co ut
_PAR AM_
C PL
endif ÄÄÄÄÄ
spaw n
" Usage
_CRE AT
In ner
iz edÄ
max imum
longÄ long
de tach
ex po
Äde code
b lÄ
Wor dÄ
http 2_
I R_
d l_
off _
spec tr
U int32
di st_
\n" ÄÄÄÄÄÄÄÄÄÄÄÄ
ti ties
star ted
loa dedÄ
ÄconstÄ unsignedÄcharÄ
Äg_new 0Ä
s_ lock
base name
SYSTE M
description Ä
ig he
Äl v_
GTK_ TOGGLE_BUTTON
TEST_ CASE
Ref Count
sur f
ÄÄÄÄÄÄÄÄÄÄÄÄÄÄÄÄ std
M Y_
bo undÄ
mod ified
v ing
be en
Äbuffer s
ÄTr ue
CO RE
_priv ate
ra sh
ÄP ER
ud f
ATION Ä
%[ src
%d :
ÄD i
Col umnÄ
sens us
is a
pli can
Flags_ No
tran sÄ
fif o_
fol low
Function s
t ml
P adÄ
ImGui Col
lock s
:Ä %d,Ä
entry_ set_
dv b_
e i
encod ing_
di vÄ
riv erÄ
Äl j_
Command s
" ?"
ho le
In c
00 _
desc r
pub lic
e cho
6 1
_de code
h tim
B D
structÄ w
"% 02
pay load_
BL ACK
ÄÄÄÄaj Str
mi se
orde red_
k obj
ÄÄ L
Option Ä
dest in
GTK _CONTAIN
Same Line
d ash
ÄÄ GListÄ
_f amily
dis connect_
syste mÄ
DEP TH
y 0
Thread Ä
Not ification
X EXPÄ
Comm it
Menu Ä
= %s"
_c mdÄ
_block Ä
% -
M icro
Ä he
x fer
ÄÄ result
list_ append
max im
Äkey s
prop_ id
I TY_
request s
F reeÄ
LE AVE_
E ST
il _
ÄÄÄÄÄÄreturnÄ FALSE
Äret val
S G
ad ded
Ass oci
get_ string
to_ str
pe erÄ
AI LAB
ro ken
In Ä
sha 1_
expec t_
Re store
Comp act
remain ingÄ
AR BÄ
NO Ä
ÄÄÄÄ de
_b lk
CH K
Äbuf _
cor rectÄ
double _
P _C
Ä USB
Exp ectedÄ
C fg
U SED
X fer
Är ate
MO V
Ver bo
area _
Ävari able
si bling
ma chine
Äi gno
di oÄ
Äb ar
EN CE_
Äbo ost
ÄÄ Äf
ÄÄÄÄÄÄ new
FF S_
pre d
ÄB E
Äoff set_
dr _
gra b_
Result s
UNUSED_ _
AS M
Äpass word
D NS_
e sp_
Äp in
Comp ression
NOTIF Y
ÄÄÄÄÄÄÄÄ uint32_tÄ
note book
---------------- ----------------
D ot
def s
__ecereNameSpace__ecere__sys_ _
ÄÄÄÄÄÄÄÄÄÄÄÄ v
_P AGE
RES OL
h ba
i xÄ
pri mary
bra sero_
.5 Ä
BOOST_ CHECK_
ÄCR YP
x or
con so
ma ss
delta _
ÄgotoÄ yy
WIDTH Ä
_CLO SE
MLS_C C
I 64
d ll
_c ell_
File System
P M
TEMP L
char _tÄ
ÄÄÄÄÄÄÄÄ Set
' C
pro xyÄ
ÄÄÄÄÄÄÄÄreturnÄ ERROR_INT
IS O
_m m_
y stick
Ä addrÄ
set "
US H_
si cs
_p kt
fa ke_
requi re
_position Ä
R AN
to ÄbeÄ
qu alÄ
endif ÄÄÄÄreturnÄ
pp ing
cal ledÄ
80 _
dig itÄ
T F
TYPE_ STRING
Network ing
ÄWIN 32
f use_
p ch
st b_
1 D
AV AILAB
Äre cv
Ä_tmp 1_Ä
Iden tity
'i '
constÄ string
Ämon itor
ad c_
ip v4
p adding
set_ error
as n
Siz es
ÄÄÄÄconstÄ std
ASSERT_EQ UAL
Än xt_
g_free 0Ä
C ut
Äg am
KE YÄ
ÄS can
NE W_
Ä7 Ä
rows er_
alig n_
ÄÄÄÄÄÄÄÄ snprintf
me dÄ
ÄÄÄÄÄÄÄ structÄ
PROPER TY
B ank
P ARE
_C OR
ÄconstÄ QStringÄ
Group s
m ult
t "
In putÄ
H idden
Produ ct
Ä M_
dn s
interrup t_
Äd 2
track Ä
R adius
n ative
p lot
iss ingÄ
ÄÄÄÄÄÄÄÄÄÄÄÄÄÄÄÄÄÄÄÄÄÄÄÄÄÄÄÄÄÄÄÄ ÄÄÄÄÄÄÄÄÄÄÄÄÄÄÄÄÄÄÄÄÄ
Äg wy_
AB ORT
jut a
L R
ÄÄÄÄ DEBUG
Äc mp
_C AP_
APP LE_
numeric_ limits
m yp
Äb ra
Äl arge
sv c_
Invo ke
trunc ate
U ME
ÄÄ options
Äc y
im ate
Äg_ free
qual ity
ÄÄÄÄ file
Di ms
_SE PARATOR
6 2
Z IP
pre ss
Doc umentÄ
li br
counter s
) );
N B
ÄD BUS_
ÄGLE W_
mo ck
vi e
Siz e_
ifdef ÄGL_
ÄÄÄÄ krb5_
LE rror
Är q
con sum
Är gb
_FUNC TION
= %p
Ädy n_cast
u f
ite dÄ
e sp
Ä EXT
ÄÄÄÄ server
Ä4 8
Ätar getÄ
_CF G_
de leted
\n" ÄÄÄÄÄÄÄÄÄÄÄÄÄÄÄ
doc ument_
Äcpu _to_be
GLAD_ GL_
MA IL
alig ned_
I tÄ
W D
_p er_
to oÄ
ack _
pri orityÄ
EXIT_ SUCCESS
% pÄ
ul ate
IO Ä
Äz ip
_pa lette
ti l_
Range Ä
AS SÄ
ÄC PL
ÄÄÄÄ goto
Äm anyÄ
pixel _
agg reg
structÄ r
_po licy_
_pro p
file_ id
Ä_tmp 3_
T cp
si tive
DI C
common _ptr
allow edÄ
j_ common_ptr
forwar d_
Ä tail
ÄÄ fprintfÄ
av ctx
11 11
Lay erÄ
SELEC TÄ
ÄÄÄÄÄÄÄÄ state
IP E_
Inter pret
V B
Ä auto
w ill
Ä2 8
caseÄ0x D
data_ lenÄ
_ g_free0Ä
at tÄ
en viron
ax is_
ÄÄASSERT_ OK
b ev
Ä Ex
ÄÄÄ E
3 d_
S rs
stribu tion
in k_
Äc rc
Ac cel
ÄMO DE_
POSI X_
I AL_
m argin
lig htÄ
* "
PER M
Änto hs
'h '
M inÄ
N ee
h ci
ÄP L
block _size
intÄ errÄ
MI SC
region Ä
cf data
den tryÄ
ali ase
B AS
ÄÄÄÄÄÄÄÄ self
LIGH T
g idÄ
h h
ind x
Äinfo _ptr
avail _
w ise
ÄST ATE_
ÄÄÄÄ g_freeÄ
se xp
ÄÄÄÄÄÄ data
Äw ra
Pack age
F M
v x
50 _
O UTÄ
Äp m
Mo tion
hex _
D LL
g le
Äb d
" ÄÄÄÄÄ
align mentÄ
ÄÄÄÄfprintf Ä
lleg al
. Ä"
P LAY
re load
edit able
ÄPC I_
per mission
ÄD WORD
low erÄ
uni code_
OPEN SSL_
Ä entries
ar b
Äp at
Elem Type
all yÄ
M illi
all y_
S parse
g ray
DI T_
" type"
7 3
Äd ay
COL OR_
c ritical
l psz
n pÄ
Un ity
Ä Invalid
R_ R
b lob_
ÄÄÄÄÄÄÄÄ resÄ
'< '
ÄÄÄÄreturnÄ p
S H_
o x
ÄÄ__Pyx_ RefNanny
me s
te l
Pro pertyÄ
Draw List
Äsour ceÄ
pub lish
uint_ 32
ÄÄ switch
b fa
Param SpecÄ
G AM
c g_
th en
ÄP er
TUR N_
retr y_
if or
cre ature
_g lobal
driv erÄ
1 10
W S_
AT URE
Th reshold
Äcomp are
Auth entic
Äregist erÄ
Ä2 2
D a
ÄÄÄÄÄÄÄÄÄÄÄÄÄÄÄÄ m
_CL ASS_
UNI CODE_
Stru ctÄ
_frame Ä
m vm
se x
ceive dÄ
g_signal_ connectÄ
F ragment
c andid
n ation
Äp an
buf size
Äscr atch
ÄÄ FILEÄ
ÄS V
Äa 1
inter pol
ÄT OK
Setting sÄ
Sc m_
INTERF ACE
E DED
fe at
CT X
ARB "
charÄ constÄ
get_ name
ipp et
ÄÄÄÄÄÄÄÄÄÄÄÄ assert
sig action
wpa _
si len
ÄG ErrorÄ
structÄpci_ devÄ
b ad_
h ci_
Ä round
av g
M O_
ÄÄÄÄreturnÄ r
pe ek
sup portÄ
TEXT URE
Äf lush
Äg dk_pix
trig ger_
ÄÄ q
ÄÄÄÄ W
tr aceÄ
AU DIO_
( 0x
_p _
is on
ac c_
l ur
CR Ä
gene sis_
Pre vious
MI SS
ÄÄ y
ÄÄÄÄÄÄÄÄÄÄÄÄÄÄÄÄ ÄÄÄÄÄÄÄÄÄÄÄÄifÄ
it sÄ
AC __
ÄÄÄÄ coutÄ
_C AN
Table _
Gener al
initializ eÄ
TH RESH
FOR _E
Äresult s
U M_
en crypt
_F ORE
thread sÄ
__ecereNameSpace__ecere__ gfx_
a head
x or_
ÄÄ osÄ
" Set
pro gram_
On lyÄ
Comple tion
err ain
v4 l2
ÄSO AP_
UNLIKE LYÄ
ÄMagick False
' u
b rc
i Xml
ME MB
_pro pertyÄ
Äread er
_bit map
GTK_WID GET
ÄÄÄÄÄÄ h
AP P_
ÄÄÄÄA jP
hid den
G ValueÄ
re leaseÄ
Äb it_
_SES SION
PR Id
MALL OC_
'F '
x 4
Ä codeÄ
value s_
_de l
Äf d_
DI CT_
Gtk Text
NUMB ER_
_recor d_
ÄÄÄÄÄÄÄÄÄÄÄÄreturnÄ 1
uni on_
Ägtk_tree_ view_get_
JNI EnvÄ
R ATE_
pr c
ST REQ
self _
Finish ed
matche sÄ
1 0000
Cre ature
_ctr l_
gra b
dv b
" ÄÄÄÄÄÄÄÄÄÄÄÄÄÄÄÄ
Äc enter
EV P_
structÄ stat
String _
Comp ress
L B
ad dition
Äc l_
Äx malloc
sock len
Äwindow Ä
Ä0x1 f
ql cnic_
Snap shot
ff _tÄ
sc en
Unicode String
Ä array_
SO AP_
ANE_ STATUS_
e y
s_ addr
_c p
vid er_
ud d_
Exec ution
if t_
ma sterÄ
sk bÄ
D AG
m box
u intÄi
ÄF D
no tice
n bytes
ÄÄÄÄ nxt_
_p ipe_
ri er_
ent erÄ
result_ tÄ
r sa
r nd
ÄÄÄÄÄÄÄÄÄÄÄÄ memcpy
sp r
au dit_
s buf
ÄÄÄ constÄcharÄ
Cur rentÄ
ARG E_
signal_ connectÄ
adjust ment
I2C dev
A re
w nd
YP E_
llhttp_ _internal
i a_
in file
ARGUM ENT
J im_
r h
_SC AN
C N
FI F
M ER
pha se
unpack _
C leanup
ÄF unction
_ST ART_
Ä row_
ÄÄÄ intÄi
PO ST
P P_
length 1
ÄPy Long_
or a
nemon ic
_c u
unsignedÄ i
reg s_
Attribute sÄ
rea se
mod ul
L J
%s /
R SA
Äf c
_P o
mutex _init
Syn tax
INTERF ACE_
b mp
ad just_
NO RE
UM E_
_S OURCE_
Get Size
ld ns_
encode d
repo sit
ol low
Un itÄ
bl kÄ
R PC
ÄÄÄÄÄÄÄÄ nÄ
_p oly
Di gest
Änon -
Äex tr
Que ueÄ
v c_
_p ref
Is A
outÄof Ärange
] .
ÄÄÄÄÄÄÄÄ result
box _pack_
Sto reÄ
Ä Token
ar p
out b
ÄC PU
Ge om
Är adius
BLOCK _SIZE
snap shot
Ä0xFFFF FFFF
Ä order
set tingÄ
ÄP ORT_
and ro
s Per
ref count
sd ram
Ästrn cmp
H ID
ÄT ext
vent ory
um bo
Sele ctionÄ
6 9
Con Emu
s_ addrÄ
word sÄ
r atioÄ
ÄÄÄÄ osÄ
ÄS T_
ÄT cl_
MU TEX_
WH ITE
Ä fo
dou t_
ÄFALSE Ä
spec t_
E M_
buf 2
vari ableÄ
" De
A E_
c 2Ä
en cÄ
ab ortÄ
PU B
cat alog
WID E_
Ä outÄ
0x FF
p 2Ä
ar se
TR A
ÄAR M
Phy sical
INT 64
ut t_
_t reeÄ
bufferev ent_
X 4
_c la
Ä0x0 4
les s_
Äfile s
M ENT_
X _CONF_
_tmp 7_Ä
ÄR A
Contain erÄ
7 4
p k_
SE Ä
%s :Ä
Äpro cess_
ÄÄg lew
bio_ err
H Y
n ul
de leg
sig ma
ID LE
Fo undÄ
do ck
ul to
ÄD o
seto pt
Evas_ ObjectÄ
n ullÄ
r db
Ä AL
Äb 1
Inter pol
e di
s 16
Ä arr
Äg s_
Di ag
BIO _printf
n id
file _path
ÄF S_
Sup port
g ers
i k
sin k_
time "
sock _
unlock _
ti leÄ
fix ture
Äi p_
ÄA t
Rot ation
ÄÄÄÄÄÄÄÄÄÄÄÄ Q
go Ä
_pro to_
Vi si
call_frame _tÄ
ÄÄÄÄÄÄÄÄÄÄÄÄ h
Py_ DECREF
C B_
s leep_
Ä found
ÄÄÄÄ s_
SY MBOL
40 e_
Ämem ber
Stati st
Origin al
constÄ QString
N M_
ÄÄ g_object_
ÄintÄ type
Ä5 00
Model Index
ÄÄglew PrintExt
_p eer
seq _printf
IN K
log_ info
? ?
c ardÄ
m ath
_de bug_
grav ity_
r lÄ
ex Ä
_d one
frame sÄ
ÄB yte
ÄÄCHECK_ EQ
o b_
Äp ref
Äs ds
sr v_
vis ual
ÄLIB C
exp lic
J U
Ä sign
Ä Index
get env
dh cp_
j_de compress_ptrÄcinfo
P ressed
ÄÄÄÄ debug
Äf w
ÄGTK_ RESPONSE_
: Ä0x
C lutter
returnÄ ERR_PTR
ce e
set_ value
' o
7 9
li brary
40 96
Decl aration
en sure
hook s
ir qÄ
array s
'p '
P ED
ri o
factor Ä
p str
e qui
volume _
g lade_
Con d
NGX_ OK
NON BLOCK
g ad
H old
M ime
ge m_
tm_ mon
iter ate_
J ava
o undÄ
Ä entryÄ
Ät id
PFNGL VERTEX
list_pre pendÄ
b ss
i iÄ
end point_
Äa f
orient ation
ÄÄÄÄÄÄÄÄÄÄÄÄ set
ÄÄÄ _
get_ current_
IS D
G_OBJECT_ CLASSÄ
'z '
C he
con tour
_name _
DU MP
ass oc
F ONT_
caseÄ PROP_
pre view
Loc ationÄ
virt ualÄ
S pa
P ortÄ
o streamÄ
rc u_
rr _
s dev
Wa ve
Äbit map
ce ph
Äc tr
12 8_
ÄBO OL
m tmp
Äf unc_
structÄ ieee80211_
so und_
AN TI
conne ctedÄ
ÄÄÄÄ rb_
mp d_
Äen code
Q ui
table s_
hashcat _ctx
3 dÄ
A cpi
fi o_
Är 1
llhttp__internal __
ÄÄ TEST_
sta mp_
FL USH
S rcÄ
_P y
ÄPar se
XMLSEC_ ERRORS_
'Z '
Äl hs
wa ve
NONE Ä
Over lay
BR ASERO_
serializ e_
F 0
U UID
ÄÄÄÄÄÄÄÄÄÄÄÄÄÄÄÄ _
_CO DE_
New Ä
lx \n"
use s
ifdef ÄW
delay ed_
w ant_
ÄL Z
STE P
B lue
ÄÄÄÄÄÄÄÄ intÄi
ÄintÄ width
MAX _PATH
a sprintf
_SH AD
_SP ACE
DISP LAY_
ÄCONST_ BITS
Äcancel lable
k l_
DE TE
Get DlgItem
Ämo re
global s
la unch
change d"
_CO MBO_
WID GET
prog name
mk dir
bool Äis
g wy_
engin eÄ
extra Ä
Ä ENOENT
alloc ated_
Input s
' D
P ol
hy dra
Sw ig
ge x
GET_ CLASSÄ
entry_ tÄ
contain erÄ
ce il
ss h_
track s
Ne igh
ENGIN E_
F U
ÄÄÄÄÄÄÄÄÄÄÄÄÄÄÄÄ elseÄifÄ
ph i
ifdefÄ_ WIN32
DC T_
volume Ä
h ardware
FL M
real m
ÄSCM _SUBRARGS
folk s/
alig ned
snd_ soc_
_proto col_
COM MAND_
u ma
Ä12 7
X _S
ÄQ Latin1
cen tage
W al
c ing
to f
section s
Ho vered
_CHAN NEL_
rep l_
Äsu b_
w si
tr o
ode Ä
St mtÄ
Ä object_
Time s
uff s_base
MON IT
uffs_base __
T UN
r valÄ
w ild
GTK_ DIALO
Äm_ n
data set
Äf ont_
type def
ÄA F_
Äbe st_
ROT LI_
D RAW
d 0
r w_
ÄÄÄÄÄÄÄÄ iÄ
"% -
CL UTTER_
%x mm
ÄÄÄÄÄÄÄÄ error
ce iver
ÄÄÄÄÄÄÄÄg f_
vis or
INST ANCE
" co
G radient
ÄÄÄÄ H5
re dis_
to m_
Th um
" sub
L 1
S quare
p ad_
UN K_
r and_
le tÄ
LIST_ FOREACH
ÄÄÄÄÄÄÄÄ HGOTO_ERROR
ÄH5E_C ANT
f erÄ
ÄÄ freeÄ
col lision
pa use
Ä tra
Lo g_
PRO CESS
sh ost
Col s
File _
DISABLE D
B ranch
ac qui
ÄPy Object_
Z_ OK
Contain s
_prog ress_
ÄÄÄÄ ps
Vec 4
Ä Error
Ä use_
ÄÄÄÄ op
RI D_
UNIF ORM
i st_
ÄÄÄÄ to
Äp dev
au _
REFER ENCE
V K_
u les
tr iesÄ
IC ON_
htt ps
Ä ARG
ÄÄÄÄintÄ iÄ
cu t_
ÄÄÄÄÄÄÄÄ sÄ
norm alize
_pack etÄ
B lack
sh Ä
Id TypeÄ
reserve d
OPER ANDÄ
ED GE
Ä0x0 8
ÄTr ans
of t
Get Count
ld ap
SQ _
RC C_
u delay
ÄÄÄÄ free_
time valÄ
M K
Är an
D C_
ÄQ U
ÄÄÄÄconstÄ autoÄ
Res olution
f write
Log ical
ÄÄÄÄÄÄÄÄ env
mail box
B AR_
Äp g_
Äi iÄ
C ellÄ
" src/
H it
j iffies
se ct_
utf 16
{ \n"
Option al
Trans late
Äsk ip_
Exec utor
numer ic
'E '
c_ tÄ
Änode _
Äsp lit
Hash Ä
8 1
A G_
D W_
s f_
z fs_
QU O
b ond
v able
ÄÄÄÄ add_
_b ind
Äsd scat
DIRECT ORY
" @
G _CALLBACKÄ
ÄÄÄÄ cur
un p
un map_
TRANS F
volat ileÄ
g_ str_
11_ Ä
by_ name
ÄÄÄÄÄÄg_ value_set_
N R
Äc lock
Ä_tmp 4_
context_ tÄ
FREE Ä
rad io_
Cal c
l and
Är 2
null "
Rot ate
' v'
E O
ge red
ca Ä
sc m_
Mem oryÄ
Tup le_
b right
Ä tex
a_ this
_par t_
Ä OBJ_
te le
SE CON
view port
syn ta
ENO T
Session Ä
IF T_
curl_ easy_
" false
ction _
io memÄ
Äcli entÄ
WRITE Ä
P M_
min im
SW AP
( s
Cach eÄ
ÄintÄ count
inte ger_
ÄÄÄÄ dataÄ
endif ÄÄifÄ
Ä0x0 7
D x
d k_
P AD_
e val_
Äxml Sec
> "Ä
mt d
MI NU
PyExc_ TypeError
\x00 \x00
F lat
Y UV
h dev
Get Object
Äx 0
Loa ded
x i
pt sÄ
gr p_
X M
e st_
Ä2 3
suf fixÄ
'm '
Äse ctor
"gl VertexAttrib
pk g
WARNING Ä
thunk pos
i 8
Ä main
ÄÄÄÄÄÄÄÄ rÄ
pr inter
c amel_
Ä levelÄ
ÄÄÄÄ db
R oute
signe d_
Ex ample
Äname s
ÄPy_ None
e mail
s alt_
Re sources
Äd ump
du ce
ATOM IC
ÄÄÄÄÄÄ out
over la
_pool Ä
Ä http
_C LEAR
Äg tk
ÄÄÄÄÄÄÄ returnÄ
cr c_
thum bnail
in st_
ma s
Äg_ variant_
Id le
u b_
ÄÄÄÄÄÄÄÄ voidÄ
ifdef ÄS
Äs mall
IGN ORE_
Metr ics
C lone
t fs_
ÄÄÄÄÄÄÄÄ GST_
tor rent
xm ms
S ched
bu lk
metr ics
LE FT_
write 32
ÄN D
1 3Ä
Äin t_
ÄÄconstÄ gcharÄ
__ecere Prop_
C MP
x fer_
QU AL
sl t
tool bar
uti ls
enc y_
Ä Object
duplic ate
X MP
go og
tt f
acce p
ÄSH A
M IC
Äp ap
amd gpu_
gettimeof day
Äp Data
stat buf
Äb io
structÄb trfs_
c andidate
alg orithm
NULL "
registr y_
di Ä
IT H
(%s )\n"
Äav ailable
Ämu stÄ
Äb lk_
Äk lass
ld ap_
ÄÄ ret
Än bytes
intÄ rcÄ
lag s
war f_
ST ACK
Äpa rentÄ
Content -
g if
_S RC
Äco l_
parent_ class
D_ P
PO OL_
INTER VAL
T M
_S _
add Action
ific ateÄ
Äco s
And Log
"ERROR :Ä
ÄI X
b nx2
no mi
__ Ä
Comp ut
C Y
ble m
fail _
Ä100 0Ä
v h
w an
Ä NU
ÄÄÄÄ log
tag sÄ
ÄW R
storage Ä
s_ data
v v
Con version
is_ empty
dec la
ifdefÄF EAT_
cmd line
ÄÄÄÄÄÄ intÄi
_pro gram
" unknownÄ
row _info
ASSERT_EQ Ä
DESC RIPT
pro pÄ
_e q
op_ ret
new _f
ro z
Ä% pÄ
ÄLIBC ERROR_
ÄÄ V
ÄÄ Äi
ÄÄÄÄg intÄ
ÄCUR LOPT_
ÄÄ st
SER VER
Äu intÄ
in p
Äpro xy
con version
ÄÄÄÄÄÄÄÄÄÄÄÄ g_
LO OK
%d /
EXPEC TED
%s %s
Äl at
Control Ä
Ä Int
de nÄ
Re d
Är x_
EXP R_
Message s
mark s
complete Ä
' T
W ide
min orÄ
RI TICAL
Änum ber_
S UM
Ä ENOMEM
16 _tÄ
les sÄ
equ alÄ
ÄPAGE_ SIZE
MPU 6050
ci es
K F
n do
u cs
ÄÄÄÄ lua
l vl
la z
pro toÄ
tic ip
ÄÄÄÄEXPECT_ TRUE
_CF G
Combo Box
ÄÄÄÄÄÄÄÄÄÄ p
Äun it_
st a_
er red
ms leep
f allback
j e_
_tmp 1
IS C_
BIT Ä
G_ UNLIKELYÄ
_R A_
color map
Pr inter
E LL_
ÄÄÄÄ Äp
ST ART_
v_ samp_factor
LI NU
color space
" Get
d word
ÄÄÄÄ tÄ
cn t_
} ,
A rena
j k
ÄP RI
Äg_ file_
allen ge
tion _
OP AL_
BE GIN_
plat form
"U nexpectedÄ
JPE G
Ä int64_tÄ
ÄÄ z
ist ics
per ties_
9 "
p itch
lo o
name_ len
Sock etÄ
N A
o gram
off sÄ
scan f
ifndef Ä
alg orith
p eÄ
at ts
SC SI_
cp y_
sub dev
LOG_ MARK
Äf read
posi x_
" Warning
re cover
str buf_
mm u
Äsh o
decode d
miss ingÄ
Defin ed
m ca
syn tax
[%s ]
te ch
sh uff
vo t
O ID_
P F_
gr an
Ätemp _
Pri ce
Sup er
Decl ar
Äb yÄ
pix d
ypo int
c data
handler s_
play erÄ
P B
Ä lf
DE C_
_t bl
ÄintÄ num
Äpar seÄ
FI X_
con struct_
spec ial_
Ä102 4Ä
R GB_
Än m_
ation al
nx t
spar ql
( %[
i mat
m on_
b_ data
spec ific
gu ard
ÄÄÄÄÄÄÄÄÄÄÄÄ x
_C TL
ÄR el
rece ive_
ÄÄÄÄ codeÄ
_t arget_
ÄS w
em c_
dr Ä
Al t
fin alize
own er_
' \"
B ulk
th ost
Ät cp
sor ted_
json_object_ set_
X \n"
g a_
returnÄ n
get_ type
ÄÄS cmObj
ÄC E_
BIT MAP
I ES
i vÄ
Ä time_
get Size
bo ut
length 1Ä
var sÄ
ÄÄ HPNode
ÄÄÄÄÄ if
ÄÄÄÄ cmd
fi Ä
Är sp
.* s
Y ear
r fc
.Ä .Ä
F R_
N I_
S B
ul se
Ät x_
HAND LED
Writ ten
I gnore
p atternÄ
ath 9
_F R
Äa 2
Val idÄ
ÄB ase
Ä_tmp 1
EDI T_
iter ate
write_ data
flow _
IM_ ASSERT
g ba
ÄÄÄÄreturnÄ err
IP HER
colle ct_
MEDI A_
for ceÄ
key s_
pass wordÄ
b x
Ä state_
ngx_ int_
extension Ä
if s
b pp
p refs
Ä P_
DE D_
Äde scription
wake up
ÄÄÄÄ config
S RC
Äo s_
ÄV er
DO UT
( "Ä
R ING
g lfw
s 2Ä
pr v
MA STER
Tag s
c si
_c trl
Äre f_
AP LOG_MARK
OL D_
RI PT_
Debug ger
Äle 32_to_cpu
ASCI I
%s )"
ÄÄg uintÄ
CON F_
Ä lastÄ
al_ error
Read erÄ
manag erÄ
ent sÄ
at s_
file system
ÄH O
Enable dÄ
receive d
STR IC
Fe ed
ÄL P
_pre pare
men ted
m box_
Ä build
Sk in
reach able
" lib
= Ä0
war f
clear Ä
latpa k
' &
en sure_
buffer_ tÄ
tv_use c
S ING
Ä fields
el ifÄ
_re sponse
mt p_
Äth at
_SER VICE_
XX XX
( )\n"
non ce
Ä0x%x \n"
'C '
File NameÄ
rot ate_
bu lk_
Py_ None
_rec ord
f lip
sp er
bio Ä
I 32
Se maphore
_par ameter_
%dÄ %dÄ
OR_ GOTO
TRANS FORM
nee dedÄ
' !
Tri angle
V END
_pro gress
ÄÄÄÄ un
RE SER
pro f
ÄÄÄÄ String
Äc ms
ÄÄÄÄÄÄÄÄÄ if
Me asure
_CO UN
fl b_
constra ints
Ä timer
ÄÄÄÄÄÄÄÄ sprintf
TI _
al tÄ
ÄÄÄÄÄÄ w
co st_
ing \n"
lib tracker-
tracker/src/ libtracker-
HE LL
Äobj Ä
D ateÄ
L 2
g_ ascii_
Ä0x c
Äparameter s
enumer ator
pr n
view er
PO INT_
d a_
data_ sizeÄ
%u \n"
ÄG_ IO_
ÄY G
ÄH5 P_
Änow Ä
. 9
ÄÄÄÄÄÄÄÄ o
ST ORE_
ÄB YTE
e ol
g row
sp ot
ÄC opy
al g_
el ts
ÄS IG_
MON O_
. 3f
Äfunction Ä
swoo le_
E numer
f lu
me ter
ÄÄÄÄÄ forÄ
n bytesÄ
ÄB L
ÄG_ FILE_
Equal s
bal ance
C LOCK_
ÄÄÄÄreturnÄ res
Äsy ste
registerÄ objectÄ
isc si
I EEE
CP L_
ater n
Ä Name
Ä valid
object "
'} '
cmd s
Action s
oth erÄ
n_ llhttp__internal__
COM MAND
f open
Ä AM
MB B
shouldÄ beÄ
Äg booleanÄ
scri ptÄ
D M
S A_
ÄÄÄÄÄÄÄÄ boolÄ
_P ATH_
100 Ä
ÄÄÄÄÄÄÄÄ F
structÄ t
Re sponseÄ
'$ '
C ar
R B_
ÄÄÄ l
gen Ä
wi re
event "
"%s .
Änode s
tv_ n
not ification
Ä AB
en ce_
EN CRYP
Error s
sub type
_de cl
PyErr _
ge stÄ
Äa re
ÄM PF
UTF -
xx xx
Read Only
H orizontal
z valÄ
opt ind
L M
com mod
ÄSI ZE
l xÄ
_re set_
stru ctr
, Ä0
Get Int
Over ride
O s
_f d_
SY S_
ÄÄelse ÄÄÄÄreturnÄ
st h
uint ptr_tÄ
\" %
item s_
G List
L AST_
q t
ÄC heck
Se t_
Ä_tmp 2_Ä
_PO INT
assert_ equal_
Rel ative
av_ log
de d"
co ord_
\x 0
glad_gl Get
ÄIEEE 80211_
Ä elseÄÄÄÄ
ÄÄÄÄ lua_push
de termin
INSER T_
D O_
S SE
charact erÄ
up perÄ
float 32
in side
md 5_
pub lic_
RUN NING
_ST ACK_
" on
' 2
z l
de compress
Data Size
sa f
Sh utdown
tm_ hour
ÄSTAT US
Ähw nd
_P IN
Un its
_Str ing
" open
DY NAM
Alg orithm
l ers
ÄÄÄÄÄÄÄÄ cÄ
_ST ORE_
qui et
C 2
atern ion
" '"
ra ck
Äsh ortÄ
susp end
Desk top
S em
RO C
%d :Ä
outÄ ofÄmemory
typeÄ type
auth or
r at
al gÄ
Ver tical
Pa inter
asi c_
ÄÄÄÄchar _u
h2 o_
g res_
ÄÄ assert_param
bje ctÄ
incip al
Äc all_
fin al_
E AGAIN
_p ci
usage _
GNU C_
bri ck
e ad
to ff
chan is
mime _
Fe atures
ÄÄÄÄÄÄÄÄÄÄÄÄÄÄÄÄ returnÄNULL
Äde n
point er_
static_ assert
_SY NC
ÄÄÄÄÄÄÄÄ PyErr_SetString
m_ str
Ac tiveÄ
mod s
g 2_
q os_
Är ad
ata _
Lo opÄ
_PO SI
_menu _
" new
O wn
ÄÄÄÄ caseÄ0x
AC L
Y ES
Ä cast
Ä NUM
tex _
ÄÄÄÄ obj
Äwh ich
Äca mer
m z_
ST AR
C irc
iz z
share dÄ
Ädev m_
Def ine
ÄÄ void
caseÄ 4
handle dÄ
MI X
S_ PER
Äu 3
op_ errnoÄ
Input Map
ÄÄÄÄ ULONG
re l_
list_add_ tail
n_llhttp__internal__ n_
int en
ÄÄÄÄ valueÄ
N_ OK
model_ get_
Inte gr
_clear _
INVALID_ PROPERTY_
Ä R_
fre q_
Ä Add
_C ACHE
key words
BU R
ph rase
. 7
structÄ crypto_
Ar Log
KAFK A_
C NT
f seek
s copeÄ
y our
ÄÄÄÄ msg
cp p_
Ä active
read _byte
sv g_
f 0
cpu Ä
REND ER
r 'Ä
'{ '
Ä ME
ÄS v
mu la
rt x_
gtk_ builder_get_
initializ e_
ÄImGui Window
semb ler
se m_
Qu ic
root_child 1
job _ptr
if est
Äs core
ÄconstÄ QString
the me_
di p
Äm f
% ll
d sc
j env
priv ateÄ
BUF SIZ
Tran sition
EXTEN SION
sysc all
f \n"
in crement
ÄW or
GO OD
p id_
%0 4x
ÄÄÄÄÄÄÄÄ __
ÄÄÄÄÄÄÄÄ server
Äp ipe
so me
to_ stringÄ
ALL OW
transl ation
WARN_ INVALID_PROPERTY_
au ti
point sÄ
ld "
Compo site
D NS
v pÄ
di rentÄ
Än 2
UE rror
ag g_
p ing
ÄÄÄÄ G_
Le ave
_F ormat
aa aa
-> Ä
o _ptr
op_ retÄ
Äsock etÄ
Äma ch
pr intÄ
off _t
ÄÄÄÄPy_ DECREF
constra int_
SE EK
ÄS c
N TA
g_ file_
lat form
cook ie_
'u '
lo ss
high light
p iece
As String
= %d,
_C T
lat ency
Lim itÄ
ÄIP PROTO_
ca y
Äc arry
Cancel lable
E a
ÄCH EC
(%d )\n"
" ]
s dÄ
Ä tag_
Äi c
caseÄ T
cx t
ÄY Y
__pyx_t_ 1
Re sÄ
_P Y
per f_
IP C
vp n
_cli ck
Cryp to
E B
ÄÄÄÄ apr_
Äsave d_
log file
v sp
v 2_
st req
ver tÄ
r tmp_
AC C
ÄI M_
ÄW rite
i bÄ
av g_
g_strcmp 0Ä
er tion
is ns_
ÄÄÄÄreturnÄ s
Point sÄ
" )Ä
mis sile
component sÄ
structr pÄpng_ptr
q e
OPEN SSL
Si bling
E AR
G pu
ÄÄÄÄ HDassert
Get Num
Äk malloc
Äattr s
_ y
e poch
o ke
ÄÄÄÄ res
ÄÄÄÄÄÄÄÄ gotoÄerror
_F REE
ÄE SP_
tm_ md
verti cal
Ämodu le_
g iven
REG Ä
% "Ä
Ät t
gtk_widget_ get_
_COMP ON
NET WORK
. 25
S lotÄ
li ve
ÄI mage
12 8Ä
__pyx_ rÄ
Äpack etÄ
list_for_each_ entry_
P ref
ÄÄÄÄ unsignedÄlongÄ
_f rag
pair Ä
Hel lo
PQ Exp
test s/
type_ name
ÄSL JIT_
ÄSE C
Äseg ment
" En
Ä update
ext 2fs_
Äsu ffix
K ILL
in stÄ
Basic Block
C AST
N a
s low
ul ate_
ile ge
ÄÄÄÄÄÄÄÄÄÄÄÄÄÄÄÄÄÄÄÄÄÄÄÄ forÄ
__ userÄ
S caleÄ
Äpro file
amil y_
ÄÄÄÄQ COMPARE
listen er_
8 25
f riend
ra g_
arg b
ÄP re
ÄM F
i ted
k "
ÄÄÄÄ floatÄ
ÄconstÄ gchar
war n_
Coord inate
" get_
log ical
i bs
ÄÄ 8
_page sÄ
x509 _c
Ä expected_
ÄÄÄÄÄÄÄÄ new_
ÄÄÄÄÄÄÄÄ close
Un Lock
rec ords
sor tÄ
_ini tializ
u 1
ÄÄÄÄ uint16_tÄ
Äpo s_
LOG Ä
_path s
journ al
.txt "
P S_
_S Q
ati al
LO GE
Äl ang
Page s
ASSE MB
Ä ERR
td c
answ er_
E igen
me try
get_ drvdata
CO UN
s len
In crement
start up
handle s
PO OL
com ma
A ck
C ritical
P V
Ä query_
at in1
ÄÄm rb_
Ä vertex
ÄU ART_
S W_
get Parent
Au x
Äctx t
Ä location
ÄÄÄÄÄÄÄÄ Äpng_
_re gÄ
Äres ol
UNKNO WN_
green Ä
ÄTREE_ CODEÄ
Äax is
Äsn ap
Äm ime
AM L
EXP ORT
Us erÄ
elap sed
'o '
Z Z
f cb
l sn
ÄV K_
mi rror
Mo unt
); \n"
does n'tÄ
I B_
ÄÄÄÄ key
length s
index es
F lash
format s
B LEN
K B
ÄÄÄÄÄÄÄÄ 0
ÄÄÄÄÄÄÄÄÄÄÄÄÄÄÄÄÄÄÄÄ continue
Äsize_tÄ count
auti lus_
BO L_
flat pa
G G
x ed
ÄÄÄÄÄÄ treeÄ
app lic
color sÄ
ADD RESS_
mark erÄ
u uid_
_pow er
E scape
g st
g si
Ä st_
Äc lean
_C TL_
Ä% lu
u_ int32_tÄ
anim ation
Ägd k_
E FI
k m
v ha
sur face_
rade on
Sla ve
T REE
p file
ÄA pp
clear _bit
V oid
w ide
sp ool
Get Key
Äho st_
BOOST_CHECK_ EQUAL
le 32
_tmp 8_Ä
Äy ear
vrr p
Äi rq
CH ANGE_
ÄSOCK _STREAM
m map
in formation
EN Ä
Äreg s
Disable d
K ill
ÄÄ priv
DE SC_
ÄX t
TAS K
" J
ÄÄÄÄ errorÄ
LA MP
AB C
Äsla pi_
extern al_
" Read
Ä KEY_
ÄÄÄÄ StringÄ
li tÄ
LOC KED
'D '
go bject_
D W
_ buffer
b sÄ
_S AVE
ÄS DL
Äf rag
tic al_
element sÄ
sof t
V 1
g gest
F req
z x_
ne goti
_p oll
state ment_
queue s
gotoÄb ail
B t
intÄ num
Re verse
Per form
A "
a inÄ
Äg imple_
Äal low
LINE AR
rol l_
N SS
b box
v end
Ä rows
read ing
ILL EG
G oo
ÄÄÄÄ outÄ
Äg_str concat
' S'
Äl Param
Count erÄ
ÄMem ory
bt ree_
mlx 4_
n ump
av r
W ER_
Sa mpler
' B
em bed
%x \n"
"B ad
T 2
b s_
_p idÄ
_CUR RENT_
pro g_
bin dÄ
ces sed
shap e_
forÄ theÄ
toÄ theÄ
Äd 1
aw s
Serializ e
" theÄ
h mm
m nt_
ÄÄÄÄ assert_param
de n_
Äb c
State s
Comp ar
ick ness
va len
k c_
_p cm_
G th
unsigne d_
Err Ä
strcasecmp Ä
ÄGtk Tree
Ä LOG
const_iterator ÄitÄ
H IST
g m_
so up_
OL _SOCKET
PH Y
Async ResultÄ
al arm
ON Ä
set_ tÄ
Lin ked
" Open
R ANGE_
ri p
get line
pe e
12 5
event s_
FILEN AME
G_OBJECT_ WARN_INVALID_PROPERTY_
Rad io
VALIDATE_ OR_GOTO
V IS
ÄÄÄÄÄÄ pÄ
Äse p
OFF SETÄ
ÄÄÄÄ mbedtls_
staticÄ boolÄ
"false "
U Char
an ts
mo te_
we b_
Ätemp Ä
feature sÄ
H A
as m
GTK_ WINDOWÄ
MAT CH_
colle ct
proces sed
u leÄ
Ä vec_
In clude
ÄÄÄÄcaseÄ 1
led ger
Ä table_
ÄS UB
ÄconstÄ void
QL atin1
Äjson_ object_
a mountÄ
ARG S_
_pol l_
ht ml_
ÄD R
share _
dict_ tÄ
_proto col
int ptr_t
us r
dw c
ACCE PT
jpe g
c wd
ÄÄÄÄ write
iz e_
ÄÄÄÄÄ charÄ
host F
Äglew GetExtension
_Stat us
Ä nextÄ
structÄ sk_buffÄ
__ FUNCTION__
Äsize_tÄ n
Print AndLog
ÄÄ lua
ÄÄÄÄÄÄÄÄÄÄÄÄÄÄÄÄ ImGui
Äfile Name
ÄÄYGNode StyleSet
ializ ed
_can vas_
F oo
_tmp 0_
value_ array_
depth _
conso le_
C ntÄ
F C_
k ing
en em
ÄG MT_
SI ST
gotoÄ end
frag ment
ÄÄÄÄ entry
ÄÄÄÄreturnÄ n
Ät b_
available Ä
Äglew IsSupported
F AI
Äm c
ÄS CE_
ÄÄÄÄ xmlSec
ST Y
Äre quest_
Äfilename Ä
hostF tdc
L Y_
W REG32
ti cket
m_ h
Äw eb
Op s
KE EP
Le af
R TC
ÄÄ do
ble _
res sedÄ
pro te
(%d )"
Rege x
ÄÄÄÄÄÄÄÄ op
ÄÄÄÄÄÄÄÄÄÄÄÄÄÄÄÄ fprintf
block s_
Ädire ction
f read
v pi
ÄÄÄÄÄÄÄÄ set_
ÄN K_
TO K_
From String
cook ieÄ
strerror Ä
bo un
mode "
_F rom
OC TE
Äoperand s
ÄÄÄÄÄÄÄÄ pix
sp lines
sock addr_in
M M_
U int
file_ size
' |
j p
ÄÄÄÄ args
el m
col on
start_ time
38 4
Ä K_
wait_ for_
V k
IR C
fra g_
VP 8
g _ptr_array_
ÄÄÄÄÄÄÄÄ addReply
ÄÄEXPECT_ THAT
xdr s
ÄLD AP_
> </
_ Get
pixel Ä
d ctx
lu ster_
At temp
object_ unrefÄ
); }
Ä lines
ÄNew String
sin 6
target s
Label Ä
number_ of_
" ../
intÄ lenÄ
EXIST S
UCCE ED
ON CE
Ä stringÄ
si bl
exception _
[ "
1 ÄÄÄÄ
r te
or g_
in line_
intÄ result
structÄ d
on 'tÄ
__pyx_v_ self
f m_
d_ data
Ä End
ÄÄÄÄ priv
int32 Ä
EE PRO
a 7
ÄN _
ÄMPU6050 _RA_
D P_
ÄÄ int32_tÄ
ay load_
v q
Ä all_
RI P
vol tage
: ÄS
E lf
TER MIN
ÄF ROM
Äh d
Pre pare
Äpath _
visi t_
visi ted
4 d
c entÄ
le af_
li de
ÄintÄ height
oper ationÄ
ÄU _
ÄCol or
ÄÄÄÄ arg
ÄÄÄÄ dst
ÄÄÄÄÄÄÄÄÄÄÄÄÄÄÄÄ returnÄfalse
Reas on
o id_
_cf g_
pap sz
_ r
n w
ÄÄÄÄ buffer
to t_
Get LastError
qu ot
_per io
G ImGui
ad min_
Äre questÄ
Pa rentÄ
ÄÄÄÄÄÄ z
else ifÄ
" ***
se cond_
_b s_
High light
Ä40 96
J ECT_
T P_
Ä6 3
gu charÄ
ÄÄgt_ assert
ur _
extension _
Cap sÄ
B 1
check sum_
mod ify_
refresh _
IPV 6
pag ate_
\" "Ä
ERROR_ NONE
WOR K_
ÄÄÄÄÄÄÄÄÄÄÄÄÄÄÄÄÄÄÄÄÄÄÄÄÄÄÄÄÄÄÄÄ ÄÄÄÄÄÄÄÄÄÄÄÄÄÄÄÄÄÄÄÄÄÄÄÄÄÄ
ÄF IR
fix edÄ
GL_TEXTURE_ 2D
ca m_
d_ size
Änorm al
A scii
ame _
_f req
t buf
ÄD C
Over flow
err buf
DO MAIN_
key_ len
MAR KER
POINTER_ TO_
h ard_
Ä0x3 F
b c_
e ina_
ÄÄÄÄÄÄÄÄ gotoÄfail
Dimension s
E TH
R UP
S q
b k
s fd
ÄÄ gl
ÄÄÄÄreturnÄ new
CH AIN
Pool Ä
ÄÄÄÄD WORD
Basic BlockÄ
vers al
Ä DECL_
se gÄ
Ät w
_re l
TR FS_
line "
Log Error
UINT N
NV PROC
suppor ted_
Compon ents
a stÄ
b 32
en ded
"/ dev/
DC TE
re v_
TE DÄ
Message _
exception Ä
Scroll Bar
Ä comm
ÄÄÄÄ tmpÄ
sec sÄ
Button s
visible _
mix er_
p al
ÄÄ test_
ÄÄÄÄ ptr
ato ms
TER M
region s
OVER FLOW
clutter_ actor
E p
P USH
a verage
buf _get_
LE AR_
16 0
s 3
wr k
proc /
ÄFLA GS_
N t
le ms
Äp as
row s_
completion _
Äxl ator_tÄ
Äp data
LAY OUT_
" id"
Ä entry_
ÄÄÄÄÄÄÄÄ switch
ra x
ÄÄÄÄÄÄÄÄÄÄÄÄÄÄÄÄÄÄÄÄÄÄÄÄÄÄÄÄÄÄÄÄ ÄÄÄÄÄÄÄÄÄÄÄÄÄÄÄÄÄ
ident ifierÄ
route _
Ärt xÄ
ret ch
che sÄ
Op timiz
transfer redÄ
GLOB AL_
Interrup t
const pointerÄ
J UT
node s_
ÄN M_
V EC_
arch _
GRA Y
do tÄ
V ID
b atch_
e "
ith er
_get_ drvdata
_pol y_
Exp ected
Äac c
N K_
ÄÄ new_
ARG SÄ
p index
VER T_
return_ val_
ARRAY SIZE
reser ve_
gd a_
Dec imal
Std String
A _FALSE
ip c
Ädi ms
error_ message
tl v
v port
INTERNAL_ ERROR
Ärange_ limit
F ig
m dev
p key
ÄG NU
Äsq l
x c
ÄS ER
Äf t
set Current
par tial
_SAF E
s In
es l_
mark up
Model IndexÄ
pair s
- 1
C AL
r li
s ge
entr ies_
ÄM _P
use c
Ägn m_
TINU E
" Pro
ÄÄÄÄÄÄÄÄÄÄÄÄÄÄÄÄ printf
Äf low
File Size
ÄC li
cl_ assert_equal_
VO IDÄ
Äp ut
Cor ner
_FLAG S_
2 000
sh ard
read 32
Ä256 Ä
P refs
aj False
Graph ic
_ ed
i mÄ
net workÄ
GET_ PRIVATEÄ
v f_
el im
Tra in
R ai
Ä fil
ÄÄÄÄÄÄÄÄÄÄÄÄÄÄÄÄÄÄÄÄÄÄÄÄÄÄÄÄÄÄÄÄ ÄÄÄÄÄÄÄÄifÄ
Äd uration
au xÄ
Click ed
T C_
Ev ent_
Cert ificate
_ src
Vi sit
Ästrerror Ä
Äcpu_to_le 16
B C_
R ateÄ
ÄÄÄÄÄÄÄÄÄÄÄÄ new
put char
6 "
R ay
Ä Reg
H ide
S cheme
cor rup
Destroy Notify
_FORE ACH
H ardware
returnÄ count
Äg _ptr_array_
tran si
D AC
G if
a THX_
Äpa lette
_St art
NE G
we e
i 16
TI VE
RO OT_
Set Item
di e_
base 64
or ter
ar ies
Äs chema
Ästr tok
ail ure
_par amÄ
down load_
EXT PROC
G lade
De penden
O UL
p fn
z val
Äb l
Upd ateÄ
SA FE_
[%d ]
B 2
re pl
AD AP
Reser ved
Con fig_
ÄC V_
Äst e
Trans formÄ
'\\ 'Ä
Ä children
Ä origin
ÄS W_
LO W_
ran kÄ
Save d
ÄÄGST_ DEBUG_OBJECTÄ
se edÄ
val sÄ
ati c
CH R
TH ROW_
ÄN one
structÄdrm_ deviceÄ
e astl
ÄÄ o
out f
ef x_
exten ded_
Ä update_
Äcon figÄ
Li ve
_pre pare_
graph ic
) "Ä
Ä VALUE_
ÄC C
Äca ps
comb in
ÄÄÄÄÄÄÄÄPy_ DECREF
Q List
ÄÄ u
ÄÄ doÄ
Äg pointer
Äd ummy
Cu be
in tr_
SC E_
24 Ä
sm all_
' X
X X_
r tÄ
REPL Y_
g p_
ÄÄÄÄÄÄ ap
ÄR C_
ÄÄÄÄÄÄÄÄelse ÄÄÄÄÄÄÄÄÄÄ
pend ingÄ
w 2
quest ion
cor rect
O K_
pro f_
ÄÄÄÄF UNC_
desk top_
ch g
In it_
sec ure
mod ify
mis c_
atta ch_
_SY M
H F
Ä KEY
str ip_
ÄÄÄÄÄÄ auto
ÄÄÄÄÄÄ printfÄ
ÄG O
ÄST D
,Ä \"
red "
Äbo ard
widget s
SL UR
mach ine_
S en
ÄÄÄÄ window
ti p_
_c loseÄ
lic ate
Äex ception
DOUB LE_
ane i_
decod er_
g retl_
un nel
ta keÄ
Heap Tuple
ÄS ub
ÄÄÄÄÄ D_
Äwh en
inde nt_
pa ren
new_ with_
ÄÄÄÄg t_
" Ex
A to
I MM
U 32Ä
LO C_
quo teÄ
AVAILAB LE
' w
Py Object_
g_string_ append
G ray
ÄP ath
ÄV4L 2_
J ump
De ad
ced ure
fa ult
accel _
S leep
ir Ä
pc m_
Äth read_
ÄCh ar
C ANCE
ÄintÄ index
ÄÄÄÄÄÄÄÄÄ caseÄ
" ExpectedÄ
G File
Äh _
per form
Ä_tmp 5_
" :Ä"
Ä layout
ti o
bu t
L D_
_d y
gf arm_
foc usÄ
dh cp
W I
p Cur
Äf loor
_S end
_C lear
so _
tra ffi
F MT
p wd
va_listÄ args
or ies
p cap_
Ä et
W ASM_
tr in
v 1Ä
filen o
ÄÄ enum
ÄÄÄÄÄÄÄÄ ret
Äi trÄ
sp line
ÄINT_ MAX
do mÄ
ar tist
de t
Ser viceÄ
Pixel Format
mag ic_
tup le_
ÄAF_INET 6
ÄÄÄÄ DEBUG_
_f mt
ÄÄÄÄÄ caseÄ
Ex clusive
Äg_object_ refÄ
Ägn c_
r sÄ
Lay ers
'2 '
Äs af
gotoÄ exit
_SES SION_
le ader
_p an
Ex pÄ
Lock Ä
" ÄÄÄÄÄÄÄÄÄÄ
Äs nd
Äin ser
window _get_
header sÄ
Äu8x 8_
ch ap
th eta
ev buffer_
Äv 4
_pro be_
IS _S
_sur face_
re ll
AND RO
ND _S
tw are
< %s
st ab
id y
_STR _
O LL
ro k
ÄÄÄ e_
note book_
remove d
2 _C
E ED
g intÄi
Ä utf8
ÄÄÄÄÄÄÄÄcaseÄ OPT_
f ac
Ä AST_
ÄÄÄÄÄÄÄÄ g_freeÄ
Äp lr
sc mÄ
LOG_ LOG
Weight s
ÄÄÄÄÄÄÄÄÄÄÄÄÄÄÄÄÄÄÄÄÄÄÄÄÄÄÄÄÄÄÄÄ ÄÄÄÄÄÄÄÄÄÄÄÄÄÄÄÄÄÄÄÄÄÄÄ
SE S
ÄconstÄ uint8_tÄ
sw ig_
Ä_tmp 3_Ä
_PH Y_
struct ureÄ
A _P
de mo
ÄS F
OP E_
_CH UNK
ther m
ITE MÄ
Äpack et_
i x_
Co eff
Änto hl
histo gram
info s
F AT
L arge
PTR Ä
Äini tializ
ili map_
A mount
Äm inÄ
Con tour
md b_
"% *
orig inÄ
OPTION S
do bj
_S U
Ät l
_re ply_
_SE LECT
TYPE S
get Next
ÄO_RD WR
" default
v or
re pÄ
li Ä
Äav ail
ai_ addr
Ä net_
ush ort
ACTI VE_
Ästrto ul
H tml
ad dedÄ
di sa
get_ value
12 0
WR IT
:Ä% m"
ÄÄÄÄÄÄÄÄ StatusÄ
Get Error
_c b_
RA M_
C nil
ÄÄÄÄÄÄÄÄ g_free
sÄ in
_b ind_
Bound ary
orb is_
' P
Äd bus_
CH OO
ru st
ATE Ä
AT O
cl p
goog le
i 915
de m
_S UP
OP Ä
stream_ tÄ
TC G
Äsa mple_
DELE TE_
ÄÄÄÄÄÄÄÄ ASSERT_
Äs umÄ
ID GE_
Äcon textÄ
_po licy
Color Edit
40 E_
[ i
ie ces
%02 X
CRYP TO_
1 80
de ta
un set
AL WAY
he el
"/ tmp
ÄK ER
Vertex Array
_pe er_
'T '
h Dlg
s ch
id 2
_p c
forea ch_
stage Ä
Resol ve
RE ACH
write _byte
UR F
conf _tÄ
f nameÄ
Ä one
rate s
Co in
Ät or
ref countÄ
ALIZE D
ro bjÄ
is olate
G_ G
Regist ers
/ tracker-
intÄ status
is Checked
star tedÄ
non -
Äg_hash_table_ lookupÄ
E s
S ing
mp c_
Äp adding
wr ong
Re alÄ
per sist
EN C_
for ms
A 0
W ill
W ords
co me
Data Set
Arg us
Äma il
DRI VER
= %d
Äd ma_
ÄD CT
quanti ze
ÄF R
Ma y
Äch ildÄ
l val
SC SI
Config ure
da mage
U CHAR
c ri
ÄÄÄÄÄÄÄÄ u
clip board
_p t
Re peat
Un ion
SW IG
Cursor Ä
ÄÄÄÄÄÄÄÄÄÄÄÄÄÄÄÄ n
set Data
tt l
_m alloc
if f_
L AN_
h mac_
ff f
Äf indÄ
Faile dÄtoÄ
ÄFLA G_
m r_
set Checked
OR B
bo okÄ
Ät ensor
__ UNUSED__
Äre move
Write Ä
utf 8Ä
a in_
n th
v t_
Ä ot
_pro ject_
ELEM ENTS
Äaj Str
Abs olute
Äc pÄ
ÄÄÄÄcaseÄ 2
ÄG ener
To Local
ho okÄ
Key word
MENU_ENUM_LABEL_ VALUE_
confli ct
D bg
se s_
line s_
in ates
ÄF T_
Ä_ data
ORI Z
F at
us leep
fs_ info
comple ted
X Y_
ee k_
lock _g
Äse ed
device_ attributeÄ
task_ error
Ad dÄ
Task Ä
ckp it_
Ä ERROR_
ÄÄÄÄÄÄ set
Är k
_b it_
ref sÄ
Äu 64
Conne ctor
parse d_
ÄPoint 3
" Content-
C _C
ext end
Äl n
ÄMA P_
O THER
Äd stÄ
ÄM ono
CH ED
S cr
ul _
RE DIS
War n
sysc all_
app li
Äu v
CPU _
ÄÄÄÄÄÄ in
GTK_ LABEL
Äsw itch
U dp
h d_
constÄ int
Ä_ inner_
HO OK
serializ er
adjust ment_
_FLO AT
Äf ull_
ACCE S
Än ick
xx x_
xor_ si128
Ä reason
ST REAM_
On ce
transl ate_
log in_
Äw l
ÄB lock
ÄR T_
ÄÄg_ auto
si mul
ul ation
ST ER_
mark er_
susp end_
usingÄ namespaceÄ
T p
b id
ÄB LOCK_
MO USE_
Py thon
disp atch_
tree view
xp l_id
Äproto col
' N
k rell
ÄÄÄÄÄÄÄÄ unsignedÄintÄ
adi usÄ
Nee ded
do t_
" WARNING
a ult
ÄÄÄÄÄÄÄÄÄ forÄ
HO ME
_CRE ATE_
B Y_
L AT
Ä root_
ÄÄÄÄÄÄÄÄ y
ÄÄÄÄÄÄÄÄ po
str cpyÄ
Lo gin
obj _cmd_
GL ONG
dev_ warn
Q ry
NO API
_de lay
acc umul
ATTRIBUTE_ UNUSED
goto Äfailed
D "
Äp alloc
Äc g
Error _
mos quit
" user
s :
get_ next_
15 Ä
lib c
ÄÄÄÄQ StringÄ
Lin kÄ
Äb y
fir m_
typename ÄT
std ::
put sÄ
TRUE Ä
_ST ACK
ÄÄ ctx
Äd h
Ädi gest
d sÄ
v 2Ä
ti alÄ
g_ clear_
_C lass
Get Attr
Äsh ape
C LEAR
L it
Co uldÄnotÄ
comb ine
ath9 k_
w d_
ÄÄÄÄ get
sp l
Äs ol
pro file_
Äbe fore
Äap r_p
BOOST_ AUTO_
data_ type
resolve d
"true "
ÄÄÄÄÄÄÄÄÄÄÄÄ this
_c lock
mb Ä
ateg oryÄ
X MP_
b f_
RA W_
" noÄ
sÄ notÄ
ÄM PI
check sumÄ
Change dÄ
mutex_unlock Ä
digit sÄ
x8 6_
"%s/ %s"
tr ip
ÄP TR_
Äre al_
Äsc ri
include Ä
g_error _freeÄ
ÄA n
value_ type
metadata Ä
OCKE T
L V_
RT X
data len
__ LINE__
Unit Test
previ ousÄ
' M
L S_
R ightÄ
ÄÄ res
ÄM ap
MODE L_
Ne st
' L
V ED
max_ size
ti Ä
Äd river
_P E
ÄintÄ h
user_ dataÄ
ÄSW IG
p Src
ÄÄÄÄ po
OR AGE_
por tedÄ
{ Ä
ap pe
Äop code
PK CS
albu m
" out
E SP
x pr
Ä send_
sc p
Äx 1Ä
structÄi2c_ clientÄ
' R
H older
e m_
Äp Node
group sÄ
key_ file
_PRO PER
i ma
l ife
ÄÄÄÄÄÄÄÄ wx
RE EN_
structÄ _
no me
Ä3 6
o "
T_ MAX
memory "
C ross
In structionÄ
_C ol
bus b_
_COL UMN
SO LE_
ÄMS G
expan sion
et ween
Än d
mut able
Äiss pace
L PARAM
ÄÄ Gtk
th row_
STR LEN
CT STR
_pixel _
constÄ size_tÄ
Pro ps
GF ARM_
W HERE
ÄG C_
ÄX 509
ÄÄÄÄg_ assert
ÄnumberÄ of
Äb atch
Ä_ _Pyx_
nd x
BL UE
X Path
ÄV cb
PQExp Buffer
" write
D R_
error Code
view _set_
ÄÄÄÄÄÄÄÄcaseÄ 1
run ning_
request_ tÄ
Q Variant
m ol
ca use
UN SPEC
ÄE AGAIN
git_ buf
S coped
BO OK
dbus_message_ iter_
ÄÄÄÄ va_end
ic c
En s
_pro du
MI C_
Per l
DA Y
GLFW window
ÄÄÄÄ size_t
lo ser
Äre q_
dis c_
L ua
Ä attribute
ÄÄÄÄÄÄÄÄÄÄÄÄÄÄÄÄ c
i_ sb
ÄM ode
endif returnÄ
dl m_
" SELECTÄ
( (
k nown_
en tity_
disc ard
B RO
H B_
ÄÄ print_
AR GET_
red raw
WAR D
" s"
ÄintÄ line
index Of
Multi ple
System Tools
Long Long
a y_
Äs caleÄ
node _t
Äact ual
E ne
read erÄ
ÄÄÄÄÄÄÄÄg st_
Play list
Äva_ listÄ
name len
_S END
Är andom
vo te
ÄI D_
mon thÄ
Lex er
IG NORE
ÄO FF
win 32
uff s_
{ }"
b m_
f z_
_S O
qu ar
Äin c
C AN
ÄÄÄÄ _glfw
constÄ String
ab stract
PH P_
"GL_ EXT_
dispo seÄ
mp c
lag Ä
Äy 0
Im Plot
acces sible
_PY X_
_S T_
IT H_
ÄÄÄÄconstÄ structÄ
Per l_
V FS_
Ä http_
Ä 99
Äw Param
pass wd
p op_
si veÄ
ip 6
object sÄ
Cursor Pos
Comple x
annot ation
G reen
re store_
un used_
li ceÄ
Äa ctor
PROC NAME
" ^
ÄÄÄÄ valÄ
ÄÄÄÄ my_
ts d
dec or
mp tÄ
" errorÄ
X 1
Äp 0
ate "
ÄÄÄÄÄÄÄÄreturnÄ err
_clear Ä
ÄÄ int64_tÄ
in kÄ
ÄO UT
ÄÄ state
ÄI M
_CON F
re write
SE Q
Äg reen
_tmp 9_Ä
Dis connect
pop _back
tcg_ gen_
iny _params
Orient ation
Ä has
ÄÄÄÄconstÄ gcharÄ
WR AP
pri mary_
V A
t idÄ
ÄÄÄÄ Check
in oÄ
ord ers
function s
Äblock Ä
rx_ ring
I SION
ÄÄÄÄ log_
O TH
ÄG R
BOOST_AUTO_ TEST_CASE
ÄÄÄÄÄÄ I2Cdev
op tim
ver ity
Äd rv
ator s
(%d )Ä
" mov
Äc red
"Un ableÄto
ÄÄÄÄ my
ÄÄÄÄÄÄÄÄ emitÄ
Äp atch
mo bj
R TL
basic_ block
ÄÄ get_
ÄÄÄÄ rvÄ
structÄ ath
Ä0x0 F
Request ed
cu da
Invalid ate
BRE AK
0x 3
finish Ä
_CPU _
HANDL ER
PTR_ ERR
ÄÄ GtkWidgetÄ
ti les
Ä header_
De leg
gth _
Äsock et_
ch n
read l
max len
maj or_
ÄÄÄÄPy_ XDECREF
contin u
ÄAl loc
me ch
get Data
_P ro
sa sl_
regist e
GENER IC
if tÄ
] [
b ab
c list
n h
n z
st rength
si m_
gener al
node _id
Äre place
_de scÄ
_SOCKE T_
st able
ÄÄÄÄÄÄ self
nd up
ÄÄÄÄ trace
RE AS
clean up_
= %d,Ä
s_ n_llhttp__internal__n_
Äd u
"GL_ ARB_
Ä 64Ä
In line
structÄ intel_
Äa sio
Un ix
CON TEXT
hel pÄ
index_ tÄ
A rr
u ted
Ä k_
gra mm
return_ value
Ä6 0Ä
u16 Ä
Mutex Lock
"} \n"
e_ info
float _
V o
h ad_
_p ending_
width "
simple Struct
choo ser
ÄÄÄÄÄÄ e
ta ke_
Änew Ächar
Äcpu _
VALIDATE_OR_GOTO Ä
' I
ÄÄÄÄ VALUE
ri Ä
In tern
SI VE
Äin valid
Ä255 Ä
ÄÄ tmp
dup Ä
" Test
G Variant
sy ms
execute _
_SIG NAL
GRAP H
" yes
d 3
ne edÄ
_S GI
path "
cl r
we ight_
ct ype_
mapp ingÄ
a le
ur bÄ
s_ info
PO WER
ÄIX GBE_
" bar"
d ungeon
ÄÄÄÄÄÄ a
Äg retl_
bf q_
__ecereNameSpace__ecere__gui__ Window
ÄSI ZE_
t 3
stan ti
cl_ assert
Que st
ÄÄÄÄÄÄÄÄ list
regist ered
vl c_
Recur sive
ÄÄÄÄ deleteÄ
Re pe
FI CI
ste ad
Inter faceÄ
mid i_
ÄQLatin1 String
h rÄ
Ä0x 9
MO VE_
editor _
'& '
GNUC_ UNUSED
Äf pÄ
_CONNEC TION
'B '
r xÄ
Ä active_
ÄÄ test
ÄÄÄÄ 0
ma cÄ
ra ise_
ip i
Col Ä
U 64
l ate_
x path_
il ity_
arg list
cre dential
Ägl yph
exp ire
Ä selected
ÄÄÄÄÄÄ double
Vector 2
dire ctÄ
GENER AL
compile _
l lÄ
Ä engine
ÄÄ sÄ
di rent
ver y
pre set
key_ file_
- %
B LE_
G u
Ä OC
ptr 2
MB EDTLS_SSL_
ÄS_ IR
_ width
si mpl
LE SS
error_ string
config_ get_
h cd
i v_
in her
ÄÄÄÄÄÄÄÄÄÄÄÄÄÄÄÄ s
US ART_
CF G_
CALL _
tiv ity
collection _
KERN_ ERRÄ
p fd
arg 3
he reÄ
_pro p_
M F_
ÄÄ Set
iter ation
regist ers
Äprop_ id
N ATIVE_
_re port
Äse ss
ÄÄÄÄelse ÄÄÄÄÄÄÄÄreturnÄ
ÄP Q
List View
image _get_
"\t \t
U ID_
st encil
ÄÄÄÄÄÄÄÄ throw
Än l
_byte s_
Ä lookup_
ÄÄÄÄÄÄÄÄ sizeÄ
SE DÄ
sub s
config_ file
__pyx_t_ 2
user nameÄ
l g_
at ar
f info
%s ."
pos sible
ÄQ MetaObject
F rag
ÄÄ nÄ
mod ifiedÄ
ERR_ NO
{ "
w b_
Äg id
Err _
neg ative
recogn izedÄ
mp fr_
In validÄ
Äop 1
roo m_
0 3
B tn
T ValueÄ
Ä ut
si d_
ÄD L
Num eric
staticÄvoidÄ _glewInfo_GL_
finish _
loa ded_
sds free
SYSTE M_
Ä OK
qu ant_
FOR CE_
" z
L nk
h pÄ
Äs x
_ST AR
ep oll_
_d raw
ÄÄÄÄsize_tÄ i
m ath_
Ä A_
structÄ request_
Äw ill
AIL Q_
Rec ent
cancel _
G ap
ÄÄ lenÄ
ÄÄÄÄ PROCNAME
ÄÄÄÄÄÄÄÄÄÄÄÄ t
li cÄ
file Path
CH ILD
ÄL ine
x2 64_
_cre ateÄ
% S"
US P
ali asÄ
Cap ability
Ä Controller
st ash
file_ choos
"/ "Ä
Fo reground
encryp t_
buf 1
thread s_
ÄPy Tuple_
Ä0x8 0Ä
eepro m
_ _c
_f lag_
ÄC L_
quo te_
s ms
Ä0x 100
Co okie
Äd ma
key len
Handle TypeDefÄ
At iny_params
NAME SPACE_
ÄAC PI_
ND_S OC_
S M_
_re cv
Ägtk_ widget_get_
ÄÄÄÄImGui Context
toggle_button_ get_
whi chÄ
Äp ol
Äw c
LOC ATION
str ap
temp erature
HE AP
way s
z d
RT P
vrr p_
N s
Ä transform
si p
ÄÄÄÄÄÄÄÄÄÄÄÄ auto
sh ip_
Äc mdÄ
ÄS OL_SOCKET
DI SK
sd p_
ÄFI LE
Äyy thunkpos
b ile
Ä RIGHT_SHIFT
lo pt
RE V
arg o
col lab
load ing
Ätmp 1
Level s
Äcol s
Ä0xf 0
not ific
ÄÄ my
cr tc_
ÄÄintÄ retÄ
json _tÄ
WE B
C lean
S orted
ÄÄÄÄ va_start
s_ from_
Äb r
ÄB LOCK
Äst y
compare Ä
Ä Context
Äin f
Äj pe
_d st
basi c
Äs uccessÄ
Äm x
page sÄ
_SY MBOL
diag nost
ix gbe_
LI T_
PRI ORI
TIT LE
Requi red
B GR
g_ dbus_
encod erÄ
ÄÄÄÄÄÄÄÄ Py
ÄÄÄÄÄÄÄÄÄÄÄÄ q
RE CE
iz eÄ
mu stÄ
gtk_ list_store_
P lain
a syncÄ
ta bs
Key Data
Äpro gram
ÄÄconstÄ std
call er
Norm alize
FUNCTION_ ARGS
f uture
ÄÄ _glewInfo_GL_
_S END_
ev ex
Äload Function
A ES_
lo cale_
la _
ER M
ÄM ake
ab fd
pi x_
Check Box
WID GET_
NameSpace_ _ed
P lus
con struct
riv er_
Äop al_
EXTR ACT_
z 2
ER E
Th isÄ
LOG_ TRACE
op_ count
uint_ tÄ
T orrent
j 2
Ä0x E
key "
object_ tÄ
Ädi g
ÄNGX_ OK
w Param
add resses
Äth row
Oper andÄ
REPL ACE
string _free
Pre vÄ
F ACT
Get Array
ÄN ot
Bound ing
Ä load_
_C ASTÄ
Äj objectÄ
REG IS
bytes_ transferredÄ
PRE FIX
Äd v
ÄP L_
W R_
u_ intÄ
" 2
DI M
Äcon v
EXP AND
c xÄ
al ert_
ÄB e
GW EN_
log ger_
de scriptorÄ
si c_
Ä0x e
%s )
syn chron
high _
equal s
ÄÄÄÄÄÄÄÄ info
mo st_
string stream
Äw p
sub mit
"C "Ä
ÄÄÄÄs sÄ
Äim g_
__m128 iÄ
In ser
string Ästr
ÄÄC lutter
json_object_set_ new
Ä count_
ÄÄÄÄ stringÄ
sp ac
ÄP CI
DI ST
endif ÄÄÄÄÄÄÄÄifÄ
PG_ FUNCTION_ARGS
C KE
_C AR
sen se_
Äl d
BO ARD
_CL K
_pass word
q s
en di
comp at
caseÄ0x 1
allow ed_
Sec ret
' g
ÄÄÄÄÄÄÄÄÄÄÄÄ l
Ä1 2Ä
Close d
tg t
ATT ACH
ÄÄÄÄÄÄÄÄÄÄÄÄÄÄÄÄelse ÄÄÄÄÄÄÄÄÄÄÄÄÄÄÄÄ
0 ],
p buf
_p layer
_P ACKET_
Di e
ÄÄÄÄg wy_
GTK_ WINDOW
bi g_
DIGE ST_
M ST
V ATE_
Äb order
Socket Obj
Äkrb 5_
ÄS PI_
lf d
spec s
update_ bits
bi as
HD R_
C tr
Ädata ptr
ick _
ÄÄÄÄÄÄÄÄ errnoÄ
Ä ok
ÄÄÄÄ sc
an kÄ
Äv m_
Inter pÄ
INT_TO_POINTER Ä
constÄ unsignedÄchar
RE PLY
ÄÄÄÄÄÄÄÄÄÄ intÄ
String Ref
sum mary_
Character istic
xmm s_
to pt
Äcon dition
_de st
Encode d
" ]"
P hase
_f etch
_SY S
quo ted
AX IS
Ä term
ext 2_
CH K_
SC AN
Äwor ld
WINDOW S
ÄPro cess
memp ool
befo reÄ
Ä ur
ÄÄ unsignedÄlongÄ
returnÄ s
ATI VE
_SETT ING_
" value"
Ä trace
Äc luster
tx_ ring
disk Ä
Äl 2
GTK _COMBO_
tab_ bar
OPER ATION
ÄNULL _
Par ts
Äarg Ä
PIX EL
ÄIrp Context
DE AD
Le ar
K IND_
Ä urb
_d b_
Äwh at
ÄÄÄÄc v
NOT_ SUPPORTED
arg 0
_F ROM_
net if
_param s_
FOR_E ACH_
ÄÄÄÄÄÄ ÄintÄ
mutex Ä
repli ca
ec eÄ
VER TI
termin ate
ÄÄÄÄÄÄÄÄÄÄÄÄ BEAST_EXPECT
EX CLU
Sha re
9 00
Con struct
Äde tail
QString ListÄ
Ätoken s
Äe mpty
Th eÄ
ÄÄÄÄÄÄÄÄconstÄ intÄ
Queue Sample
uw Atiny_params
b ilityÄ
Ä show
In itÄ
_S Z
Äg lobus_
ub ifs_
PyErr _Format
Wh en
tion Ä
Get Time
ific ate_
ÄAP R_SUCCESS
_SHARE D
tr im_
th on_
Äb pp
Mod al
REQU IRE_
" local
A sm
J ust
h al_
ÄÄÄÄÄÄÄÄ caseÄ0
ÄÄÄÄÄÄ memcpy
Ä0x a
em c_p
.0 .0
ALIG NED
N IC
data baseÄ
j erry_
di eÄ
Äre s_
FOR CE
tic les
DIS K_
x 3
at ches
ex clude
dr m
VI RT
ÄCP LE_
W ind
ÄS SL
Ä3 1Ä
} Ä
ex c
Äpro perty_
error_ msg
local s
no ise
Äl b
PFNGLVERTEX ATTRI
p mlme
u cÄ
ÄÄÄÄÄÄÄÄ xÄ
on entÄ
ID s
strn cat
PC I
util ity
p attern_
Äc s_
structÄ q
map ped_
ÄT SR
OT F_
Äcal cul
ÄHTT P
% 1
J ECT
Äco ord
Äco okie
ir c_
fe rentÄ
load_ GL_
Ä9 0
tri e_
INST ANCE_
E OL
G FP_
f lo
g _printÄ
block size
Mat chÄ
requi red_
NOTIF Y_
T URE
k a
ÄÄÄÄÄÄÄÄÄÄÄÄÄÄÄÄÄÄÄÄÄÄÄÄÄÄÄÄÄÄÄÄ ÄÄÄÄÄÄÄÄÄÄÄÄÄÄÄÄifÄ
Är n
ÄP age
******** ********
3 '
5 12_
D SDP
y e
tm_ yearÄ
shoul d
re loc
ack Ä
G DestroyNotify
h yper
p nt
r dp
ÄÄ printfÄ
ÄÄÄÄ get_
ev en
caseÄ0x C
Äsw ap
Verbo se
LE X
AN EL_
List ElemÄ
Äso ap_
pla in_
Ho stÄ
Vert s
n "
ÄÄÄÄ retvalÄ
_c ell
ÄG C
comm onÄ
_re s_
ÄH ash
dete ct_
+ "
exp ir
X Size
DE T
String To
File Node
BO DY
FL ASH_
matche dÄ
'! '
collab ora
ÄÄÄÄÄÄÄÄ Äp
ha _
pp edÄ
Stack Ä
ra ce
ÄG _CALLBACKÄ
4 8_
Äs len
Par serÄ
Äg_ malloc
Ä_tmp 4_Ä
pthread_ cond_
stri ctÄ
FIF O_
'X '
_ buf
Äi tr
Depth Ä
NUMER IC
Ato ms
Z IP_
dev s
AS L_
Control s
_ le
ÄÄÄÄÄÄÄÄ m_p
sp n
sen se
send to_
pid _tÄ
partition _
7 00
Ä owner
ÄÄÄÄÄÄ q
cn n
FL ASH
iph er_
ÄÄÄÄ sub
ÄÄÄÄÄÄ NULL
AM P_
15 _
o ss
pr _info
Äre gÄ
BUIL D
ÄÄÄÄÄÄ resÄ
ow nÄ
Äsize_tÄ length
Ästrcmp Ä
ÄÄgtk_ widget_
_COMPLE TE
<< Ä"
F G
ÄÄÄÄÄÄÄÄ }
de mux_
sÄ inÄ
ÄconstÄ float
P g
ÄÄÄÄÄÄÄÄ aj
Data _
MP EG
ÄN V
Ärd_ kafk
intÄ y
match ed
rela xed
M _SUCCESS
name d_
note Ä
Filename Ä
ÄS O_
Ass ertion
bf qq
Ste reo
Sol ver
frequ ency
if r_
ho me_
pi xÄ
rege xp
G_OBJECT_WARN_INVALID_PROPERTY_ IDÄ
Äjpe g_
C ells
Get Pixel
_CL ASSÄ
trig gered
slid er
% ldÄ
Ästd in
pli er
M nemonic
r ts
table _name
dump Ä
ae ad
Äqu ant
ff e
ÄÄÄÄreturnÄ nullptr
ÄC B
ref .
Ca lendar
Metr ic
I mple
=Ä %d"
alpha _
Älist_ entry
'| '
" inÄ
a w_
b eta
h it_
Ä textÄ
un ic
ex change
Äg lade_
ÄG B
rel ative
T K
Ä shared
mp rintf
s_ countÄ
m_ ui
watch do
snap shot_
m map_
_re questÄ
ÄV i
AME L_
Äs ort
_SE L
So up
gam ma_
Äc ls
_f ont
sk y
io cb
c 3
o 2
ame Ä
arg v_
pp layer
read_ buf
ÄÄÄÄt b_
RUN TIME_
c entr
r fb
re vÄ
Ähost name
ÄÄÄÄcaseÄ k
_pre fixÄ
M H
mp r
ne ss_
Ät uple
CO LL
cr RefCount
TIM x
ifdefÄ ENABLE_
ÄOR C_
g uint8Ä
list_ get
ÄD O
ZER O_
Äsr s_
A tomÄ
S R_
_ lock
p _ptr
ÄÄÄÄÄÄÄÄÄÄÄÄÄÄÄÄ for
ÄÄÄÄÄÄÄÄÄÄÄÄÄÄÄÄ f
di ctionary
arg 2Ä
87 23
retri ev
O ct
ÄÄÄÄ bÄ
st s
u32 Äi
0_ child
CP LError
AA AA
ÄÄÄÄÄÄÄÄ VERIFY_
mp ool
ÄÄÄ elseÄ
St k
inter val_
_s lot
spon se_
over lay_
L ed
St u
VER B
return_ vals
An juta
Rege xp
% xÄ
re maind
vi a
index "
_pre fix_
Ä_mm_ xor_si128
Get Property
0x 4
ÄÄG t
Defa ultÄ
BOOST_ CHECK
al ance
AL T
cre mentÄ
cal le
Av ail
Äg_object_ get_dataÄ
`%s '
u u
ÄÄ g_object_unrefÄ
ÄÄ ioc
result sÄ
port al
d type
Ädi sk
Qu anti
iterator Äit
"Un supportedÄ
xm lÄ
ro ugh
list_ freeÄ
LINE Ä
v table
pro t_
ÄM B_
Wid get_
__ecere NameSpace__ed
plan e_
GTK_TREE_ VIEW
escap ed
'\" '
ret ty
structÄ v4l2_
fe of
hw loc_
Offset s
activ ity
Su ffix
ÄÄÄÄGST_ DEBUG_OBJECTÄ
_fin alize
orde red
ÄÄÄÄÄÄ unsignedÄintÄ
man ti
tb lÄ
Magick False
rock sdb_
ÄÄÄÄÄÄÄÄ window
co s_
CON F
v fs
st dout_
up plican
0x 2
Min imum
Ali ve
Äoff setof
VOL UME
a __
c ross
no op
Är nd
0x 80
ÄX X
Äne igh
U AL_
g z
qu ie
BU CKE
ÄI tem
ERR_ NONE
prog ressÄ
LIB R
alle l
ÄÄÄÄASSERT_ OK
visi tor
F AST_
e e_
de abc
te redÄ
art be
_m anager_
dp m_
c ctx
ÄÄÄÄÄÄÄÄÄÄÄÄ env
DE CODE_
Pro cessÄ
ÄB it
REG S
gtk_widget_ showÄ
ÄGET_ CODEÄ
else ÄÄÄÄÄÄ
Äg w
Ät y
Äa fterÄ
_CR YP
emc_p macro
time specÄ
ÄÄÄÄÄÄÄÄ Log
ÄÄÄÄÄÄÄÄÄ return
message "
structÄsnd_ soc_
Cla mp
f x_
ÄÄ add_
str 1
vo ut
_g nutls_
IPH ER_
_inner_ error_
rendere r_
N AN
AL_ ERROR
Ämode l_
decl aration
"un expectedÄ
ÄÄ crypto_
ÄÄÄÄÄÄÄÄ H
mp u
ÄC T
bit D
host nameÄ
itter /
Ä status_
ÄÄÄÄcaseÄ OP_
name_ lenÄ
transaction Ä
E qu
ÄÄÄÄ map
el p
ÄC MP
Äin v
Ma jor
ÄE D
dy n_
bs sid
constan tÄ
_f ast
Äpro du
mi b
ÄTREE_ TYPEÄ
RP C_
o stringstreamÄ
ÄÄÄÄ write_
LA T_
by name
BOTTO M
Ä VALUE
ÄÄ vector
s_ get
Multi TexCoord
o ot
con tr
COL UMN
Äl t
hd a_
F lex
get Reg
Äw alk
par serÄ
A ES
T 1
X 11
ter ms
Con sume
De scriptorÄ
_CH K
SIG N
FORMAT Ä
_ string
_p anel
__pyx_ r
E st
s r_
Är tl
ÄF ix
ÄO _CREAT
Be havior
ÄPRO T_
Hist ogram
TAIL Q_
Rsp Info
de s_
return_ valueÄ
af r_
blu eÄ
Äs g
wh atÄ
SER VER_
13 _Ä
u art
Ä maskÄ
pp d
ÄN ext
bytes_ readÄ
ASSEMB LY
P recision
ÄÄÄÄÄÄÄÄ ASSERT_EQ
ME TA
ng http2_
000 _
rect angle
wait For
P ATTER
V a
h so
r sc
ÄÄÄÄÄÄÄÄ msg
el d_
_de lta
From File
Cat alog
curl_easy_ setopt
constÄ stringÄ
Äpar ameterÄ
Ä_tmp 6_
dec im
Row _
ÄHP DF_
shadow _
unp ck
l j_
ÄÄÄÄ emitÄ
file_ nameÄ
Äma c
CS uccess
j_ compress_ptrÄcinfo
/ folks/
ÄD NS_
"/home/ tre
collabora /folks/
itter/ collabora/folks/
"/home/tre itter/collabora/folks/
fil er
Äde lim
K V
ac d
mt u
At tack
GTK_ ENTRY
draw able
Mon th
( %p
returnÄ _
LE X_
Ät bl
gf id
_PO S
SA MP
color "
Äno te
'L '
ÄÄÄÄÄÄÄÄ valueÄ
buf sizeÄ
Äw s
ment ation
be stÄ
z s
me asure
\n" ÄÄÄÄÄÄÄÄÄÄÄÄÄÄÄÄ
Co s
msg_ tÄ
sÄ "
Col l
Table s
bf q
Äframe _
jut a_
a mple_
VAL _P
ÄÄÄÄ_ In_
QString Literal
h box
Ä unsignedÄlong
iz ation
DI TION
Time outÄ
Spec ialized
WIDE_ INT
flatpa k_
f ops
q dev
structÄ ip
Attr Ä
oper ation_
Ad min
a e_
c v_
ÄÄ resÄ
Äd id
ÄG T_
ÄP ATH_
XML Node
H OLD
y mm
Än b_
scan ner_
24 _
rot li
wpa _printf
Exten ded
Calcul ate
se cp
con sist
structÄ ev
_pro ps
AI _
Äma g
exist ing
INSER T
E FF
ÄÄÄÄ freeÄ
br ation
ÄGTK_ TREE_
ÄÄÄÄ update
di b
ÄÄÄ evas_object_
Ä0x1 0000
lu g_
Äbo olean
mg mt_
Ä on_
file path
sa v
slash Ä
returnÄ c
radi usÄ
mix er
Äm ul
as n1
format ted
vari antÄ
_SP I_
De fn
db env
longÄ longÄ
ee e
Äbot tom
f ri
set_ state
ee tÄ
EK_ END
'w '
se maphore
ÄÄÄÄÄÄÄÄÄÄÄÄÄÄÄÄÄÄÄÄÄÄÄÄÄÄÄÄÄÄÄÄ ÄÄÄÄifÄ
Ä0x d
mu _
ifdef ÄWIN32
ÄR D_
Mapp er
ÄÄÄÄout ptr
structÄrequest_ queueÄ
h ard
Ä comment
an k_
Äs alt
ed je_
_F E
Äy y_
jo bs
tri angle
% llu
ÄÄÄÄ NULL
ER S
log s
ÄÄÄÄÄÄÄÄÄÄÄÄ e
file_ data
ofÄ typeÄ
COMP I
"O utÄ
_STY LE_
lock_g uard
R ST
Äb lob
add ing_
Äu til
Äm_ i
Äal g
exec ution
Ärequi red
'M '
ch k_
Äs zÄ
Text ures
TIME OUT_
MIN Ä
Inte gerÄ
stand ard
dimension s
direc tive
secur ity_
Ämach ine_
ÄÄÄÄÄÄÄÄÄÄÄÄ tmp
ec x
mapp ing_
F 2
y o
Str ategy
ÄÄÄÄÄÄÄÄÄÄÄÄÄÄÄÄÄÄÄÄ forÄ
list_ lock
_tmp 1_
Ä655 35
F so
Q Ä
b bÄ
ÄÄ statusÄ
ÄintÄ fd
%02 xÄ
_process or
Alig ned
6 55
De cor
cor ner
Tex Parameter
" x"
W as
tr ac
Get Field
w bc
ÄÄÄÄ strÄ
di stance_
ÄÄreturnÄ r
aliz ation
rd_kafk a
de red
Äf old
get Opcode
Cop yÄ
ÄÄÄÄ g_return_if_fail
_p ass_
Äf b
ÄS Q
ÄC ode
count "
,ÄbutÄ gotÄ
ÄÄÄÄÄÄÄÄ node
ÄÄÄÄÄÄ X
s_ init
ÄÄÄ returnÄ0
ÄC LIENT_
FI LL_
NO TS
ÄD MA
OK E
TRAN SI
-- -
a cÄ
ÄÄÄÄÄÄÄÄÄÄÄÄ pÄ
Äma ster
Ä9 Ä
COMP RES
w ant
rec ent_
Äex t_
cairo _set_
ÄÄÄÄPy_ ssize_tÄ
s 5
Ä firstÄ
ff t
RE V_
20 48
rl "
compo se
Ädire ctory
i MCU_
m arg
ÄÄÄÄ staticÄintÄ
RE NT
back endÄ
ÄN L
p lug
it ute
st_ modeÄ
ÄintÄ b
AB B
Start up
API ÄvoidÄ
CHAN NEL
PLU GIN
N OR
ÄÄÄÄ init_
un z
s_ num
ri ck
AM ER
tra verse
UINT 32Ä
Process ing
_faile d
B ROW
M B_
Ä ER
ren cy
Är ank
Äz one
sha 256
Äph y_
ÄI2 C
w ifi
voidÄ ImGui
_SC ALE
ÄIN TE
FIX ED
m timeÄ
ÄÄÄÄÄÄÄÄÄÄÄÄÄÄÄÄ g_
AP E
Äto ol
"% u
full name
m_s QueueSample
ÄNum ber
7 "
po licy_
ÄÄÄÄreturnÄ rc
ow Ä
Di rec
ÄÄintÄ r
append StringInfo
80 2_
ÄÄÄÄ caseÄ0
ÄM P
E MC
d ing
ÄN an
sector Ä
D L_
Ä force
ÄÄ GErrorÄ
ÄÄÄÄ bufÄ
ÄÄÄÄÄÄÄÄÄÄÄÄÄÄÄÄ charÄ
state_ t
Äio v
ÄÄÄÄ posÄ
ÄG E
gl Get
Point F
EL M_
sym link
Äplan e
comp s
reg map_
ÄH andle
Äac cess
ARE NT
shap eÄ
W alk
ÄÄÄÄÄÄ __
conn man_
PT STR
ÄDCT SIZE
if aceÄ
I CE
j as_
r f_
Ä2 4Ä
Äd yÄ
ST M
ÄH e
ÄO_ WR
menu_ item_
Director yÄ
'P '
"/home/treitter/collabora/folks/ tests/
y stack
Äi mpl
ss lÄ
Än 1
~ ~
F un
ÄÄÄÄifÄ (
ab l
SETT ING
L PC
returnÄ PTR_ERR
stat istics
bot tom_
Tool Tip
p2 p_
g ingÄ
Äw pls
Me di
qual s
pci_ dev
ÄBR ASERO_
if u
E A
p iÄ
intÄ xÄ
err msgÄ
ÄC an
ÄÄE FI
F 32
Äc p_
ction s
ÄD MA_
Tr unc
bt Vector3
mpt y_
k 1_
Äc ntÄ
%s :Ä%s"
Un der
ÄÄÄÄ strncpy
di ctor
add Widget
host s
texture Ä
V tx
Äy 1Ä
CHAR _
Ph one
P OP
out er_
Ex change
ÄÄp ng_
sur faceÄ
e po
q c
ÄÄÄÄÄÄ priv
Äin et_
obj 1
CO UNT_
request ed_
( &
C lasses
ÄÄÄÄÄÄ unsignedÄ
error _Ä
_PROTO COL
} \n"
r buf
s lenÄ
Ä NODE_
MA CH
Test Case
Äac pi_
E NUM_
Q P
V 4
Ä %s\n"
ÄG _CALLBACK
ÄC OM
mu te
block ing
hi st_
asi c
supported "
" Load
s ctx
END ING
la un
AL G
ac ct
ÄP G
Äv is
11 1
vide oÄ
case ÄÄ
: %dÄ
ÄÄ emit_
Ä0 "
_P UB
ÄC K_
io b
em on
tmp 1
SC ALE
Log ging
CL K_
rel ative_
contextÄ context
GO T
mis c
ifdefÄ DEBUG_
Ähas_ ext
U seÄ
s nÄ
x l_
ÄÄ xml
ma gn
QLatin1 String
tr av
li ck
Äi pÄ
_m anager
const_ cast
ÄSL UR
DCTE LEM
'N '
_ 1
b and_
ÄÄÄÄ uint32
ÄLD AP
sh eetÄ
structÄ pageÄ
i_ get_
gener ation
Meta Data
p in_
ÄX FS_
SH ARE
INT_ MAX
norm al_
temp 0
PRO C_
Äfailed :Ä%s"
rcu_ read_
m ig
Äa fter
RO WÄ
rt sp
iterator ÄiÄ
gnutls_ assertÄ
ÄÄ cinfo
ÄÄÄÄÄÄÄÄÄÄÄÄÄÄÄÄ autoÄ
IN SN
In to
Äw i
Se par
field s_
Ä0x7 F
Äif ace
Ägp io_
'R '
Äc lassÄ
ac cÄ
uint 256
ÄÄÄÄÄÄÄÄÄÄ continue
Äv s
State mentÄ
cs len
gtk_widget_set_ sensitiveÄ
R 2
ok e_
'\ r'Ä
Mo re
Variable s
B M
pre pare_
_pro perties
wait ing
legac y
e ch
l m_
ÄÄÄÄÄÄÄÄÄÄÄÄ float
RE STRIC
DE COD
file_ in_
hex Ä
Ä__pyx_ v_
exe cÄ
cent er_
= >
R and
sÄ theÄ
_tmp 10_Ä
ÄÄÄÄÄÄÄÄcaseÄ 2
Pre fixÄ
EV T_
HANDLE Äh
3 .
ÄÄ write
Ä0x c0
type s_
_CON TEXTÄ
BIT S_
PI XÄ
FL AC__
AK E_
ÄÄÄÄÄÄÄÄ ui
Äcon d
Quad PartÄ
UCCE EDED
si red
AP R_
ÄÄÄÄ print
le tion
list en_
TI CK
_tmp 2_
Vari ableÄ
ÄÄÄÄÄÄ exit
g_ strdup
erÄ than
ÄÄÄÄÄ constÄ
av l_
oper and_
_CLO EXEC
rece iver
velo pe
strncmp Ä
ÄÄÄÄ RETURN_
Äin dices
VAL ID_
Di v
DAT E_
Al arm
_packet s
ÄÄÄÄ req
an al
Get Char
Ädi alog
p cr
p unit
pa Ä
SC REEN
"% u"
_PRO P_
ÄÄÄÄÄÄÄÄ uint8_tÄ
ÄC S_
Symbol s
sector _
DIREC T_
Act ual
d printf
in line
_s um
son g
device_ idÄ
json Ä
_CLI ENT
intÄ id
conver ter
Activ ate
3 60
fi t_
LO OP_
Element Type
_SH OW
POSI TION
ÄÄÄÄ Spline
de x
ptr diff
Äh y
Äx s
List s
bio s
mutex_lock Ä
Jo bÄ
WE IGH
ÄGdk Event
Na N
2 b
F OC
pc b
writ able
%p "
" image
Ä filter_
mo sq
obj s
per iod
g_object_ setÄ
requi redÄ
compression _
Transl ation
_SYSTE M
P IN
P VOID
ÄÄÄÄ StatusÄ
mp ol
Äw sptr
Ästr chrÄ
Äde lay
move s
_CO LL
help "
Full Path
U 16
b au
m x_
p THX_
TY Ä
,Ä &
to _c
ÄM L
Äco ef
F N_
p te
OR IG
ÄF _SET
MO USE
test "
cn c
i h
lap sed
invo cation
Cho ice
S OCK
n ss
ÄÄ re
ÄÄÄÄ src
Get Length
ARE_ EQUAL
: %d
F RA
S ListÄ
s rÄ
Ä MEM
ap pÄ
caseÄ E
LE AVE
list_ new
GTK_ IS_
Device Object
ÄÄÄÄ it
ÄÄÄÄÄÄÄÄ staticÄ
RO UND_
rk b
exp onent
u th
z c
Ä MEM_
slot sÄ
". /
stand ard_
exp lo
INT 16
Sw ig_
Rai se
F it
Ä memory
IP S_
CR C
Äss canf
liter alÄ
ar rÄ
en et_
ÄÄÄÄÄÄÄÄÄÄÄÄ ngx_
set sockopt
check_ buffers
ÄÄÄÄgtk_ widget_
ASY NC
" pro
Ä enabled
ÄÄÄÄÄ constÄcharÄ
iffi esÄ
ÄGP IO
socklen _tÄ
p S
ÄÄÄÄÄÄÄÄ print_
Ädi ag
Ren dere
Ä0x 30
Tool Bar
zoo m_
F ar
Äb and
_c ert
config ur
Index ed
"/ proc/
fla sh_
P ause
p ipeline
name lenÄ
ow n_
Äres ource
ÄÄ cÄ
Get Position
Äin str
HEL P
Re cÄ
lock edÄ
trans ferÄ
pc ity
TO T
Äoutput_ buf
" H5
m Num
p erson
tr ueÄ
ad f
Äi gnore
Äw ords
ÄintÄ idx
io buf
tree_ view
bytes_ per_
_CT XÄ
V T_
ÄÄÄÄg tk_tree_
win d_
Ä endif
in coming
al c
_c c_
open cl_
Out Of
CF G
int8 _t
Äop_ errno
p Next
al arm_
intÄ k
ÄM Q
_SY SC
AN GLE
iter s
Äpre vi
Mu sic
CUR L
MET A_
apr _pool_tÄ
T ou
Äb fd_
Sp atial
INS NÄ
T w
ÄÄÄÄÄÄÄÄÄÄÄÄÄÄÄÄ g
Äf latpak_
Äc iÄ
SI LON
24 00
Äwor d_
same _
NX T_
ÄÄÄÄÄÄÄÄ log
ÄÄÄÄÄÄÄÄ B
Äf g
war d_
C ycle
ÄÄÄÄ put
pro t
size_ Ä
V fs
Äp index
Äl an
datat ype
Ä EC_
con firm
AN CH
pl t
pk cs
super_ blockÄ
G PR
k free_
o t_
s 0
ad ing
format "
Block Size
un ordered_
bo Ä
string _find_
LI TE
ÄN M
second ary_
_pa rentÄ
l sÄ
Ä ver
ÄÄÄÄÄÄÄÄÄÄÄÄÄÄÄÄelse ÄÄÄÄÄÄÄÄÄÄÄÄÄÄÄÄÄÄÄÄ
" add
s ."
: ÄfailedÄtoÄ
P ed
q t_
structÄ list_headÄ
(%s )Ä
x 0Ä
z ed
PRO CESS_
pack ed
sm bus_
ax isÄ
Äle 16_to_cpu
De mo
ÄintÄ w
LOG_ WARN
Build Value
inst all_
_close _
"/tmp /
e sc
val 2
Ac countÄ
pi c_
ÄGet Current
graph Ä
We ak
S ink
to _p
let te_
CLI ENT_
glyp h_
) ."
ÄÄ node
ÄÄÄÄ options
end ptrÄ
DE S_
rc u
cp us
ÄÄÄÄintÄ len
are st
sto ck
Äarg 1
device_ param
yy vsp
" ##
H ome
I SS
b pt
l "
z lib_
lin ked
sid ue
ÄGD AL
P id
n atur
p ctxt
Äf h
g_object_ set_
S GE_
ma y_
ET CH
': 'Ä
LAN G
Äf older
pre cÄ
log_ file
ÄX EXPÄ
End point
Äes l
handsha ke_
E TH_
L AR
ÄM IN_
Äcur l_
ÄO GR
lan gÄ
Ä0x1 F
if name
const expr
h ctx
i lo
Ä lex
out ine
LE F
LI P
is o_
AC L_
_SE ARCH
dete ct
T IN
ÄÄ "
_re moveÄ
_id s
NG X_CONF_
cu be
_pri ority
_SUPPOR T
Ä id_
ch dir
In formationÄ
"Ä %
type_ Ä
ipel ine_
g_string_ appendÄ
N ear
c group
caseÄ E_
ath er_
FILE_ CHOO
bp f
Tri m
VT K
= %s\n"
time stamp_
ÄÄ string
structÄ n
__ isl_
US AGE
"F ileÄ
4x 4
whe reÄ
V 6
c tive
h z
Äm erge
ÄÄÄÄg boolean
oc c
Input Text
buf_ lenÄ
hi erarch
56 5
Man age
8 a
F CE
G TEST_
d be
o a
returnÄ new
Äo Ä
La stÄ
ar p_
en g
ÄÄÄÄÄÄ set_
Äd xÄ
_d ate
RES P_
auth Ä
play ers
GRA M_
Colle ct
Ä enable
ÄÄÄÄÄÄÄÄ re
li ce_
ts dn
PC I_
Y G_
ÄÄÄÄ ERREXIT
addr _t
UINT 32_
mul _
p _p
buffer "
cf q
Or Quit
ÄgotoÄ _out
ÄIP MI_
EDI T
__ecereNameSpace__ed a__
' y
b atter
n ap
Ä bucket
UN EXPECTED
group _info
Vec 3
ÄÄÄÄ item
name d
mod ifiers
MAR K_
disable dÄ
frag ment_
calcul ate_
asn 1_
ÄÄ GL
ÄS ele
shut down_
Äfor k
ÄIEEE 80211
ÄÄÄÄFUNC_ LEAVE_
' 3'
1 50
et urn
Än i
RO MÄ
UN DEF
Äpro gress
ÄÄÄÄÄÄÄÄÄÄÄ ifÄ
termin al_
E SÄ
U _FAILURE
ÄR C
FALSE Ä
ÄQ _
Äprog name
N ER
v u
_C AST_
ÄÄÄÄÄÄÄÄreturnÄ result
wor ld_
Äho stÄ
%08x \n"
ÄÄÄÄÄÄÄÄ xml
ms a
io ctl_
Se qÄ
ÄR ANGE_
Symbol Ä
Äsup er
VARI ABLE
ÄH5P_ DEFAULT
si an
AT FORM_
ui 64
temp 1
UP Ä
Ädi stance
transp ortÄ
sty ler
Äcontain er
Cryp t
d dÄ
ÄÄÄÄÄÄÄÄÄÄÄÄ delete
structÄ radeon_
int_ tÄ
Ä ck
um n_
AM IL
spar se_
ÄÄÄÄÄÄ tmp
up stream
ext 4_
"C re
Sele ctÄ
AF_INET 6
B itÄ
g cc
m ca_
p ipeÄ
_S PI
FlagsÄ flags
V 0
le epÄ
de png_
Äp st
Äy mm
src pad
Spec tr
ÄCO MP
ngx_int_ tÄÄ
L ITER
_ node
ÄÄÄÄ sqlite3
ÄÄÄÄÄÄÄÄ errorÄ
Äb itÄ
param s_
over ri
. g
7 68
S ensor
ch as
_p layer_
Exp an
7 '
ÄÄÄÄÄÄÄÄ doÄ
ro leÄ
ÄÄÄÄÄÄÄÄÄÄÄÄÄÄÄÄÄÄÄÄÄÄÄÄ intÄ
table sÄ
Äbuf size
dy nam
br pc
over lap
G REEN
T iXml
Ä Result
ÄÄÄÄÄÄ g_freeÄ
Re plyÄ
Är dev
thread_ id
wpa_s upplican
tup leÄ
TABLE Ä
_ cÄ
‡ I
ir st
net dev_
ele mptr
"b "
LIC Y_
gpointerÄ data
ALLOW_ THREADS
i 3
l 3
n al
s db
ÄÄÄÄ stream
ÄÄÄÄÄÄÄÄÄÄÄÄ size_tÄ
_P ASS
ÄG ame
ÄF c
CALL BACK
Äsu sp
BASE Ä
e ax
m ic
_S SL
ÄG LOBUS_
Arg v
_CONN ECT
B 0
v asÄ
failed \n"
h id_
Ä Config
sw ig
dev_ genesis_
ÄFI X_
structÄsockaddr_in Ä
@@ @@
gradi ent
dev_genesis_ key
m ctx
ÄM Z_
TH IS_
eth er_
ÄÄÄÄÄÄ op
Value Error
Box es
invo ke_
: \n
v 16
ÄintÄ num_
sub scribe
Ä0x8 000
var name
F requency
L et
d ark
_S e
Äd set
TYPE_ S
Empty String
Ä tile_
ro le_
Äm g_
ÄM ulti
ÄÄÄÄ_ _Pyx_
client_ p
NUMB ERÄ
J UST
End Of
coeff s
bnx2 x_
sin 6_addr
de init
ÄÄÄÄÄ _
_F IN
US AGE_
ÄMPU6050 _
thro ugh
"src/ char_
F ONT
ut s
Wr ong
Star ting
ing le_
no b
action sÄ
0x 90
F latpak
ff t_
LI BUS
Error Macro
ÄN et
Äconst ÄÄÄÄ
Mod ify
Type_ tÄ
METAD ATA_
list_for_each_entry_ safe
R ING_
Äm l
vi m_
mu xÄ
10 1
queue d
vec 4
redu ce
capabili ties
log ical_
G EN_
P H_
str _tÄ
"src/char_ ref.
I MPLE
m buf
_f ull_
ÄÄÄÄconstÄ float
ast_ log
ÄÄÄÄ Delete
fin ity
%p \n"
nest ed
ÄPTR_ ERR
"src/char_ref. rl"
H ave
x xÄ
ÄÄÄÄ temp
en o
Äi cal
neigh bour
R AT
k lassÄ
u d_
ÄS OCK_
acce ptÄ
_SYSTE M_
Ä form
process or
Spec ific
encode d_
panel _
s mart
Äa st
spec ifi
cx n
der ive
ÄMe ssage
" max
" OK
g_ value_
staticÄ size_tÄ
min imum
STR A
Lock ed
bp pÄ
bp f_
_cli p
Ctx t
Allow ed
#### ####
Ä2 9
check edÄ
fl t
Äcpu_to_be 32
g cÄ
ÄÄÄÄ vÄ
CHAR Ä
33 33
% =
a co
ÄÄ gotoÄ
in u
stat istic
_t cp_
ÄM a
Äca iro
ÄÄsize_tÄ i
Plugin Ä
Äclo sure
ÄÄÄÄ p_
Äto lower
pixel sÄ
acc um
Äwa it_
DRI VER_
0000000000000000 0000000000000000
M MC
Äf 2
ÄGST_ FLOW_
Ä lineno
intÄ res
Set State
uint32_tÄ iÄ
seg s
' ~
Ä left_
sp acing
pr un
so Ä
Key Frame
H al
M ip
Äp Cur
ÄS rs
En er
Ästr casecmp
VAL Ä
comm ents
payload Ä
B lk
W C
IN CLU
et ype
pre p
REC ISION
Tab Bar
ÄGTK_ WIDGETÄ
K nown
U i
f 32
p Parse
r sp_
re spÄ
en tityÄ
ÄintÄ length
ÄM in
Äy our
PL US
lan k
Plan es
_depth Ä
Äkrb 5
'I '
t 'Ä
Änew Äwx
heap Ä
Gl yp
I 4
h its
p info
mp 4
md b
EV P_P
Äbase 64
_CONST ANT
IDENTI FIER
" }"
DE ON_
Check box
Äex ist
rw lock_
REMO TE_
Äsur face
to lower
EX P_
Äl first
S z
c lockÄ
v tx
re lÄ
_STRING Ä
"n one"
c ss
ÄÄÄÄ output
Äc alledÄ
__ be
EC ORE_
sock addr_
port "
stro ke
Äcf g_
Pro xyÄ
Äop s
MODI FI
S OR_
Ä yp
de crypt
_S ING
dd b_
Parameter sÄ
ÄGU MBO_
e core_
w av
ma keÄ
ÄS end
AP E_
cre d_
Äre fÄ
cl kÄ
FFFF FFFF
Ä internal
intÄ type
Äs ort_
:Ä Un
Äcon text_
lua_ is
Region Ä
ani ti
Qui ck
Äg ui
ÄT he
token sÄ
%sÄ %sÄ
Äbool Äb
roo mÄ
Ävar s
Ä TE
si sÄ
op line
00 1
ist ream
Äe e
Äget pid
Ägl Get
k k
is_ open
_e valu
match er
setting s_get_
Äspe ed
si te_
_S h
_S OURCE
structÄ t_
ÄÄÄÄÄÄÄÄÄÄÄÄÄÄÄÄÄÄÄÄÄÄÄÄ continue
control ler_
Sc intilla
VO ID_
AMP LE_
hide Ä
_CRE ATE
crc 32
VOL UME_
sin _portÄ
g g_
ÄÄÄÄ SEC
ÄÄÄÄÄÄ freeÄ
fo reÄ
info _t
ÄÄÄÄreturnÄ _
%s .\n"
dou tÄ
Äser ial
Äcamer a
new line
' 4
T urn
ÄÄÄÄÄÄÄÄ NULL
ur ge
Äk ind
STR Ä
Äbyte Ä
2 ,
l _p
x attr_
Ä vo
al ready
Äa mount
status "
Temp or
m lÄ
Get Id
sector sÄ
STRUC T_
SQLITE_ OK
) .\n"
I A_
Ä er
end "
AD V
close d
Ite m_
ÄFIR ST_
x -
un Ä
Stat us_
Äsy nc
Attribute Ä
secp 256
con ti
ÄintÄ max
Äg_ utf8_
Äo ther_
top t_
Operand s
ec e_
_push Ä
IF_ ERROR
TAR GET
ARGUM ENT_
. 20
B ridge
Ä channels
ÄÄÄÄ out_
st l
Re porter
ed x
Äv a
ÄH AL
GT ERM
Äget c
Äsh e
color_ spaceÄ
_ WIN32
r 1Ä
ÄÄ }
Äde scriptor
expression Ä
ua e_
Ä exit
Ä INF
Äs ink
Ä3 60
Ä_tmp 5_Ä
neg ativeÄ
e b_
_S N
_f alse
"%s %s"
Äcomp onent
flush Ä
BIN D_
day s
factor y_
gobject_ class
o gg
Ä ctxÄ
ev con
_F ATAL
IO C_
output_ file
"Re ceivedÄ
Äpack age
ra id_
comp _info
Äv b
= %sÄ
ha x_
ÄÄÄÄÄÄÄÄÄÄÄÄÄÄÄÄÄÄÄÄ intÄ
iss ue_
ÄÄÄÄ unsignedÄchar
_pre vÄ
Äjo b_
S cm
s lab
ÄÄ errorÄ
err s
Än r_
ÄS o
set_ name
au til
AN Y_
Ästr cpy
COL UMN_
_print k
Ägd a_
alway s_
Ene my
T V
r hs_
Ä aux
Äsh a
luaL_ error
Äextra ct
Gra b
c if
lu mp
alloc ationÄ
my ds
Al ways
Ä definedÄ
Äf tell
Äin validÄ
WID TH_
D eta
me d_
Ät wo
free t_
log ging
exten ded
Ä %s"
_p y_
he dr
wid Ä
ie dÄ
cache dÄ
structÄsock addr_
ÄETH_ ALEN
FLM UINT
" ÄÄÄÄÄÄÄÄÄÄÄÄÄÄÄÄÄÄÄÄ
ÄÄÄÄÄÄÄÄ check
LOG_ OBJECTÄ
create d
normal s
B LOB
_ un
b enchmark
ÄÄ LOG
lo caleÄ
string sÄ
cur ve_
Imp lÄ
ieee 80211
'g '
P as
s int32
app let
Äu d
script or_
,ÄbutÄgotÄ %S"
r 0
Ä dirÄ
re st_
Data SizeÄ
QU ANTI
driv e_
h p_
sto red
2 s
at ype
key file
UR _
request ed
TL V
Äpre fix_
ARRA YÄ
GST_ TIME_
LENGTH _
I d_
U IDÄ
al led
_p atch
Ge ome
log "
D ll
w i_
Äw here
ÄE QUAL
tx t_
14 _Ä
mg rÄ
phy s
Gdk Pix
El m_
' H
M utable
Ä usage
Ä video
ÄÄÄÄÄÄÄÄÄÄÄÄ out
" par
U rlÄ
p Node
ÄÄÄ m
Äk v
ru _
ULL Ä
eg g_
Pub lish
D M_
K indÄ
l num
Äp state
In sn
ÄG POINTER_TO_
Token s
BUFFER Ä
Äsample s
l Param
p free
con su
Ä1 80
sc b
Ädi git
gs f_
hu ge
ÄNGX_ HTTP_
hold ers
Built in
Statist ics
Äi sn
Äz 2
Close Handle
_SER VICE
ÄISC_ R_SUCCESS
in cr
ÄÄÄÄÄÄÄÄÄÄÄÄ buf
structÄ nvkm_
with outÄ
Äread l
Ämem ory_
Termin al
if o_
H or
b z
l kÄ
ÄÄÄÄÄÄÄÄ sp
row se
can notÄ
ÄGD K
fold erÄ
Ädif f_
e ti
st buf
id 1
Par tial
Äu wsgi
sds len
f stat
di vide
Get Text
ÄÄÄÄcaseÄ C
mut t_
G r
z x
arg vars
ses s_
unit sÄ
G D_
De ath
Ä3 00
min ator
ÄV _
",Ä "Ä
s val
ac ct_
Äsh ad
Ädev _get_drvdata
BOO T_
scale d
pan go_
lea ve_
Äsnd_ soc_
Äwrit ten
" auto
ÄÄ NULL
ÄÄÄÄÄÄ k
ÄÄÄÄÄÄ sÄ
up sample
CON TAIN
L 3
i q
_p as
PRO GRESS
Äph p_
ÄÄÄÄÄÄÄÄÄÄ std
QU IT
BUIL T_
" setÄ
A E
u zz
Ä Input
mp z_
Ät up
ÄV M_
befo re_
bool Äc
( %u
ÄÄÄÄÄÄÄÄÄÄÄÄÄÄÄÄÄÄÄÄÄÄÄÄÄÄÄÄÄÄÄÄ ÄÄÄÄÄÄÄÄÄÄÄÄÄÄÄÄÄÄÄÄÄÄÄÄÄÄÄÄÄÄ
_t argetÄ
start "
number s
pha seÄ
bio s_
Ord erÄ
ÄÄÄÄÄÄ gtk_
object_ get_
HP DF
se ctÄ
la pi_
li mÄ
Äf reeÄ
AB ILI
Back up
ÄNE W
I ED
J sVarÄ
mysql d_
ÄÄÄÄreturnÄ status
Äre ceive
CF ailure
interrup tible
DESTRO Y
for k_
h c_
se ed_
i ti
Äs cale_
Label s
GU ARD
constan ts
rt2x00 dev
F loor
Äf inal
Äto p_
_PRO CESS
Icon Ä
% c"
O rig
ÄÄÄÄ JS
al num
val 1
ÄG AM
DI FF_
Sig ned
ent t
caseÄ F
ha wk
Pro jection
ÄÄÄÄintÄ rc
host "
ÄÄÄÄT cl_
F cb
re sidu
loc ation_
ÄP IX
Äj intÄ
ÄR GB
disp _
i wl_
s xÄ
structÄ a
ld \n"
string_ value
setup Ä
ENS OR_
X 4_
h spi
x form
Ä DEBUG_
ÄÄÄ __
Äre dis
R tp
p mod
ÄÄÄÄÄÄ SWIG_
mp e
to c
_c lo
Key Value
Volume Ä
_COMP RES
La unch
"FailedÄto ÄcreateÄ
O SÄ
r k_
Ä light
Äcon vert_
buf_ height
RESPON SE
M 2
AR R
entr op
request edÄ
ML S_
Exception Ä
Basi s
" File
g ing_
ca ption
_S SL_
Äm 2
ÄH ASH_
_d ma
item_ tÄ
Global s
ÄG_TYPE_ STRING
R_R ND
THRESH OLD
reposit ory_
Ä change
et chÄ
_c red
LE DÄ
ÄintÄ c
EXTER NAL
ifÄ HAVE_
RE PORT
Äf l_
TI L
Äg_ build_
sub typeÄ
Qu aternion
Äsh ort
SD ValueÄ
class_ name
total_ sizeÄ
_PLU GIN
ÄÄÄÄ countÄ
ÄÄÄÄreturnÄ std
ÄÄÄÄreturnÄ Status
REG ION
Änet work_
rout ine
_ "
ÄÄÄÄ throw
ÄÄÄÄÄÄÄÄ ASSERT
m_ current
ul er_
inter faces
HANDLE_ VALUE
d sp_
RE PE
Äpro cessÄ
ÄCOL OR_
appe ar
: ÄcannotÄ
F Y
F aces
_ mi
_p adÄ
lan e_
TIME DOUT
cer tÄ
Äd n
_d river
unlock Ä
call s
default_ value
string Äs
au dioÄ
Äx y
ÄÄÄÄÄÄÄÄÄÄÄÄÄÄ Äbreak
NOT NULL
q gl
RE COVER
ok an
Syste mÄ
A 1
l b_
m 3
er ci
is r
add_ to_
e cÄ
Ä Address
on ic
Äp t_
Äc b_
Äc amel_
reg noÄ
config ure_
Engin eÄ
ÄÄÄÄÄÄÄÄ EXPECT_
ÄÄÄÄÄÄ buf
ÄM PI_
op_ typeÄ
start_ timeÄ
TRACE Ä
wsgi_ req
Äpri ority
buffe red_
Äsearch _
sparql -
m v_
ÄÄÄÄÄÄÄÄ tmpÄ
intÄ count
ÄÄÄÄÄÄÄÄÄÄ gotoÄ
aliz ed_
NE ON
Äwh ite
Oper and_
socket_ tÄ
Delta Ä
Rad ical
_val a_
p ctx
Ä selection
le m_
_p g
_S Ä
Än fs
ÄP rint
new_ name
Tex Image
ÄÄÄÄÄÄÄÄÄÄ return
ÄG PIO_
mu sic
DIR TY
v id_
ÄÄÄÄ yÄ
QU ALI
g_object_ ref
graph ics
_SY S_
LAN G_
it v
_c irc
Äre cor
comple x_
LZ 4_
" u
A V_
C d
N FS
P ACKET_
Ä andÄ
Ä codec
_f ra
Äd t_
"F oundÄ
HU F_
inger print
in y_
Äv f
Pro pÄ
ft s_
ÄÄcharÄ buf
w as
Str oke
Open GL
Äser ializ
_FLA GS
Ä uint8_t
Con structor
Äw antÄ
__ __
lig h
:Ä% lu
w cÄ
intÄ size
Äp rec
ÄÄÄÄÄÄÄÄÄÄÄÄÄÄÄÄÄÄÄÄ p
write 8
priv data
Ämo ve_
Play erÄ
mime _type
nn i_
T ray
Ä2 7
Äu v_
Äbuf _len
Äg_new 0
ÄScm_ Error
M ult
ÄÄÄÄÄÄÄÄ s_
Äpre vÄ
WARN ING_
_SP EED_
TRAN S_
ÄS_ IF
ÄÄÄÄPy_ INCREF
ÄÄÄÄ_test_ string_find_
calcul ate
journ al_
id r
Class Name
12345678 9
I llegal
P IPE
c dÄ
d ai
i _c
ÄM S_
read_ reg
Me mÄ
Font Size
Ang leÄ
compres sedÄ
Ä right_
ÄÄÄÄ g_return_if_failÄ
ath 10k_
ll d
pix bufÄ
caseÄ W
,Ä "Ä
re lay
name space_
is ol
lin ked_
ÄÄÄÄÄÄÄÄreturnÄ NGX_ERROR
str_ append
hide _
sim il
L ER
ce s_
De p
ev util_
List Box
Änet dev
S OURCE_
ÄÄÄÄ last
_b tl_
all "
Data TypeÄ
mi i_
jo int
Initializ ed
Analy sis
P ts
w il
Äin ptr
Äma y
stop ped
"G otÄ
Ä OBJ
Ä extension
in verse
Str ip
ser ialÄ
pp erÄ
pri me
block_ sizeÄ
Dete ct
[ 1
h ap
ÄÄÄÄ os
RE N
Är r
sen ten
ÄB IT_
cod ing
ÄÄÄÄconstÄ auto
24 5
13 9
B IG_
T TY
ch allenge
intÄ p
Än x
Sub st
ÄÄÄÄÄÄÄÄf close
ev t_
To k
back up_
Is In
array_ size
Do cÄ
INVALID_ PARAMETER
Äsc roll
autil us
int ÄÄÄÄ
di al
v_ typeÄ
Un til
gotoÄ Exit
SH ORT
str_ len
contain s_
"[ %s
_port s
resol ver_
mid i
ÄCH AR
SSL _CTX_
ÄV4L 2
w n_
IN STRUC
Äm atch_
table "
list_ store
Ä_tmp 7_
Ätr i
_PO WER
spar se
inclu de_
G R_
k il
fi re_
Äf x
Äb trfs_
ter s
sk Ä
io t
ifdef ÄE
ler ance
DEBUG_ MSG
ÄnotÄ found
Ämin or
ÄÄÄÄstaticÄ charÄ
P ci
o buf
ÄÄintÄ ret
ÄnotÄ defined"
"P leaseÄ
DIS ASSEMBLY
BUTTON Ä
s ke
rr Ä
PRO XY
Q_ ASSERT
"unknown "
de cryp
UN SET
CT OR
"\n" Ä
Äcol umn_
monitor Ä
MATRI X
G UE
ÄÄ W
ÄÄÄÄÄÄÄÄ constÄchar
Äl anguage
sto mÄ
bool _
" Al
Ä luaL_check
de gree
DE SK
CL UST
ScopeÄ scope
sin _familyÄ
_S MALL
MA N_
B "
c fÄ
Po w
Index es
tv_n secÄ
Ä_inner_ error_
H R
S chedule
ÄÄÄÄÄÄ 0
:Ä '
state sÄ
Äl x
trans formation
work space_
dis connectÄ
LAY ER_
Link s
xdr _
u8g2 _Set
, Äp
k Audio
p dataÄ
Ä texture
ÄÄÄÄÄÄÄÄ goto
Ät f
tmp buf
ÄGet LastError
ÄSe arch
checkout/gnome /
"/home/martyn/Source/ checkout/gnome/
P Y_
RO LE_
ÄE FI_
UT DOWN
log_ message
ÄÄÄÄg uintÄ
we ak_
Äkey len
ÄJ im_
Tab Ä
_CANCE L
clon e_
E mb
sh otÄ
Äg c_
sion _
ÄÄÄÄintÄ nÄ
bus y_
Äfailed ."
gi mple
GTK_CONTAIN ERÄ
ÄÄÄÄÄÄÄÄ add
er sÄ
_STAT IC_
fin ite
memory_order_ relaxed
explic itÄ
er m
_p op_
end p
ÄÄÄÄÄÄÄÄÄÄÄÄÄÄÄÄÄÄÄÄ else
du _
Äl 1
bar rier
Äpre fixÄ
_PRE FIX
MEN TED
CONN ECT
LZ 4
upgra de
v en
ÄÄÄÄ aÄ
ÄÄÄÄ BOOL
Re presentation
read ingÄ
Äk c_
EXP ORTÄ
meta Ä
Äsig ma
c rop
ÄÄ uint16_tÄ
name 2
ph one
A_ LIGHT_
gr pÄ
HEIGH TÄ
libc error_
B ias
f time
k control
s bÄ
Ä LL
ÄÄÄÄ nameÄ
ÄÄÄÄÄÄÄÄ R
pro cs
node 1
log_ id
ÄMPF R_RND
B X
D 3
g au
ER G
constÄ double
ang led
ifndef ÄBE
REMO VE_
ÄMON O_
ta p_
UL Ä
rt cp_
debug fs_
array_ get
n th_
s se
Ä timeÄ
CANCE L
A_LIGHT_ DISASSEMBLY
ifndefÄBE A_LIGHT_DISASSEMBLY
" Check
' ^
e q_
Ä ON
ÄÄÄÄ ptrÄ
ÄÄÄÄÄÄÄÄ unsignedÄ
min us
\n\t "
ImGuiCol _
Ä allocation
EN SI
Stream ing
pen dent
I 915_
ÄÄÄÄÄÄÄÄÄÄÄÄÄÄÄÄ resultÄ
ÄÄÄÄÄÄ sprintf
_S ur
no te_
cur win
mq tt_
ÄÄÄÄ mem
string _freeÄ
Äsp an
ÄU T_
MC U
R SP
k c
m tr
Ä infoÄ
ÄÄÄÄ Gtk
end pointÄ
ÄC T_
ÄunsignedÄ shortÄ
NGX_LOG_ DEBUG_
caseÄV 4L
ÄGEN ER
" Q
x en
ar r_
returnÄ m_
Äf lag_
Äm r
Con Ä
lf _
Äh ome
SI F
Inde ntÄ
AME TER_
xml "
MM C_
Äoper ation
ÄSN DRV
h int_
i val
o ver_
ge e_
_re place
DIR _SEPARATOR
TRIG GER
TEMPL ATE_
S 3
e gl
_S OF
Äde stÄ
Äinput_ buf
NX 2
d tÄ
s list
par ameter_
CUR RENT_
or te_
K P_
ÄÄ FX
Äi gnor
ÄÄÄÄÄÄÄÄÄÄÄÄÄÄÄÄÄÄÄÄÄÄÄÄÄÄÄÄÄÄÄÄ ÄÄÄÄÄÄÄÄÄÄÄÄÄÄÄÄÄÄÄÄÄÄÄÄÄÄÄ
To t
Äimage _
Ädire ctor
A ff
P A_
r tmp
Ä ENO
ÄÄÄÄÄÄÄÄÄÄÄÄ structÄ
TH RO
fil tered
bs s_
"\ 0
Rendere rÄ
Radical Inverse
" hello
U LL_
q ry
s yÄ
ÄÄÄÄ sqlite3_
id leÄ
ÄÄÄÄÄÄÄÄÄÄ elseÄÄÄÄÄÄÄÄÄÄÄÄ
ÄP ASS
head s
evalu ate
% 2
ÄÄÄÄÄÄ errorÄ
intÄ a
Äp s_
oper andÄ
ÄÄÄÄg_ signal_
ÄAP LOG
" application
f wd
q pÄ
ta pe_
Re maining
St ub
Äd s_
ÄC MD
Äh alf
attribute __
liter al_
P erson
Ä State
re li
Äm ouse
ÄÄÄÄÄÄÄÄÄÄÄÄÄÄÄÄÄÄÄÄÄÄÄÄ caseÄ
sy sÄ
Äcon stra
bor g_
og g_
' G
ÄF ree
mt x_
25 0
internal _Class
PH Y_
"no "
disc ard_
U ri
k 2
v ac
t_ get_
s_ with
map "
GTK_ ENTRYÄ
ull_ m_
header_ tÄ
Ä__pyx_ c
quick list
ac pi
Äg sb_
code "
Ve ct
u_ int8_tÄ
BOOL ÄC
Änet work
ÄCH AR_
' 5
R c
p New
file _tÄ
ÄT X
event_ tÄ
Äsaf e_
file_in_ zip_
p b_
s lÄ
ÄÄÄÄconstÄ size_tÄ
Per iod
Cont inue
Äabs l
a vi
Ä ssl_
ac lÄ
Äl c
ÄÄg imp_
fix num
Return Ä
roz en
F 1
W heel
Äsp rite
View er
ÄIP MI
ÄMY F
_ emitÄ
q h
Ä0x 00000000
ces ses
ui tem
width ÄÄ
Buff ered
Äm_ data
ÄA T_
Äser v
Ärd_kafk a_
char _t
in vert
ne mo_
Äl it
tra sh
E rase
F M_
ÄÄÄÄ typeÄ
Di alog_
vector s
unsignedÄlongÄ longÄ
__pyx_t_ 1Ä
blk_ mq_
Y ou
Ä uni
ers "
Äac count
ss rc
mm u_
data_ field_
Uni code_
Ä__pyx_ L
_PYX_ ERR
c ub
Ä fill
ad ded_
as mÄ
Int Set
Äself Ä
TC S
GtkTree PathÄ
" org
caseÄ B
sub streamÄ
_block sÄ
jec ted
JU MP
ad verti
_p m_
li bs
Äc ipher
pro fileÄ
Error CodeÄ
ÄÄÄÄcaseÄ OP
OC T
Memory Context
Answ erÄ
ÄÄÄÄajStr Del
ÄÄÄÄÄÄÄÄ write
intÄ idx
AN JUT
ite d_
FS 2_
ASS OC
"Faile dÄ
_CHANGE D
ÄAt tr
free vÄ
M ail
g hÄ
ÄÄÄÄ cb
ÄÄÄÄÄÄÄÄ dst
ti _
_p d
Äf ly
EN V_
check er
Äpre vious
hist oryÄ
tool tip
_SY NC_
L J_
ÄÄÄÄÄÄ LOG
el lip
is Error
MO TION_
ÄÄÄÄÄÄÄÄÄÄÄÄreturnÄ FALSE
Älo ff_tÄ
plugin Ä
geome try_
a es
q pol
Ä angle
Ä video_
_b y
ext ents
IP Ä
Dir s
rel id
UTI L_
Feed back
t tÄ
con t_
selection _get_
M V
Get Tick
Ä2 000
ÄAP R_
"http :
'4 '
char ge
ÄÄÄÄ dÄ
ÄÄÄÄÄÄÄÄ do
MA GE_
_de code_
git_ index_
mark_ node
ceph _
A tt
i 915_
ÄÄÄÄ Obj
ÄÄÄÄÄÄÄÄ rd_kafka_
lock er
UR ATION
Äcomp ute
quanti z
Annot ation
RadicalInverse Specialized
c ult
c sr
v mÄ
ÄÄÄÄ Z
ÄÄÄÄÄÄ delete
ingÄ to
Fi re
vide or
orc_ union
l gÄ
Ä Device
returnÄ IRQ_
get Int
pr m
Extension s
nl msg_
wm 8
ToLocal Checked
s -
u ve
Ä $
OP NOTS
OB _FAIL
-Ä -Ä
s ÄÄ
caseÄ T_
Ätx t
' 7'
R ules
co ckpit_
out going
mo Ä
ERR Y_
mem b
sn ippet
MS C_
AU SE
ina_ ListÄ
Encryp ted
auto ÄitÄ
B undle
v 1_
y n
ÄÄÄÄÄÄ ASSERT_
ne g_
_C M
pr in
_P _
List Cell
Un load
Äat t
Clo ud
ÄÄmp fr
H ARD_
R ich
d j
Äi so
GE O
_callback Ä
Sta mp
H ORIZ
J EC
rea ched
fo reground
ÄE vas_
pi cture
Sequen ceÄ
P oll
Ä ray
co ordÄ
fi o
ha seÄ
sk ill
ÄE vent
enable d_
string_ to_
gener al_
REC V
aliase s
ÄÄÄÄ GListÄ
Äp recision
structÄ rt
DE XIT
_tmp 3_
pv t
ÄÄÄÄÄÄ print_
ÄreturnÄ e
om ni
"faile dÄto
dispatch er
Detail s
ÄÄÄÄÄÄÄÄ strcpy
Äp ts
structÄ lpfc_
_C B
Ä0x b
the re
H D_
U long
returnÄ SLUR
ro _
Äa rena
fix up
Reg Exp
tick sÄ
Äg_object_ newÄ
g ss_
sk in
ÄJ S_
exec ut
_PAR TI
ÄgotoÄ error
sof t_
ÄÄ sp
ÄÄÄÄ av
st ype
me chanis
st_ sizeÄ
DIALO G
remove dÄ
ÄÄÄÄ event
Äu wsgi_
ÄV AR_
lua_ get
Ätot alÄ
sex p_
C ASTÄ
f onts
ÄÄÄÄ fflush
mm io
pe ctÄ
read_ info
Second s
ticip ant
struct ure_
ÄÄ Test
ÄÄÄÄÄÄ iÄ
ÄÄÄÄÄÄ statusÄ
ÄÄÄÄÄÄ uint32_tÄ
Se ctionÄ
Per cent
_SC ROLL
hu art
lea stÄ
ÄcannotÄ beÄ
_py x_p
ÄEIN A_
if ile
V 8
ÄÄÄÄ sizeof
ÄÄÄÄÄÄÄÄÄÄÄÄ D
Äi 1
comp ressÄ
v_ get_
marsh al_
\ \"
Ä dir_
Ä emit
ÄconstÄ u8Ä
_re ply
_tmp 11_Ä
VARI ANT_
R ename
w all
il ter
ÄB T_
OL AR
Ro otÄ
ÄSy stem
Äquant ptr
ÄÄÄÄÄÄÄÄ T
ul int
qu ark
PRO TE
Ädict_ tÄ
Fin alize
h ighe
ÄÄÄÄÄÄÄÄ codeÄ
en vironment
structÄ timeval
Äm gr
AC C_
ÄÄÄÄP R
Äconst_ cast
l seek
fa ke
ide ntÄ
lan e
Äis c_
() :
gtk_tree_model_ getÄ
pow erÄ
Äb h
ctor Ä
Connection s
ÄÄÄÄ tryÄ
Äw atch
Äbuf _size
__pyx_ filenameÄ
_inte ger
Agg reg
In stance_
Äg_list_ nextÄ
Äpk g
" o
" test_
_ num
l hsÄ
re lay_
ip es
ÄÄÄÄP h
S_IS DIR
GOT REF
f q
ÄÄÄÄ check_
ti o_
c_ get_
ÄG B_
Äl v
ph ra
_pro file_
connection _get_
faile d_
Ägn utls_
DEP TH_
S lots
_c m
size_ size
CT hostFtdc
ju stÄ
gboolean Ä
Äne g
doesÄnotÄ exist
P DF
w asm_
ÄÄÄÄÄÄÄÄ TEST_
Ä0 ÄÄ
EN SOR
Ex act
ÄW M_
Image s
uint64 Ä
DR Ä
ÄGF_ LOG_WARNING
elap sedÄ
Sol id
_PLU GIN_
AjP Str
not ifier
' O
m idÄ
SI G_
dir p
command "
orig Ä
P icture
ÄÄÄÄÄÄ result
name s_
ÄF sp
Äre maining
io a_
sup p
as_ string
ÄÄÄÄl v_
invo ke
G A_
TI LE_
Äre main
RA DI
LIST_ STORE
Ä interface
co he
Ä1 "
_t yÄ
Äl Get
_ X
t dÄ
structÄ xfs_
il leg
ÄÄÄÄÄ return
_ptr s
"gl Uniform
Fmt Print
" ÄÄÄÄÄÄÄÄÄÄÄÄÄÄÄÄÄÄÄÄÄÄÄÄ
" expectedÄ
2 10
h intÄ
i trÄ
ble Ä
ra ster
_s z
Factor Ä
" !
H our
l string
n bÄ
Äin formation
Check er
Position s
PI_ LOG_
Pack ed
ÄÄÄÄ conn
Äi r_
Siz er
Äes l_
, \n"
_ time
id ata
returnÄ b
off "
ÄI W
For m_p
packet s
ILI MAP_
m sp
p devÄ
Ä _b
Ä command_
_S et_
state "
"% "
]Ä [-
un ifor
Äi b
allo ca
tor _free
Transaction Id
Calcul ator
ListCell ÄÄÄ
' V
I E_
i buf
ÄÄ buffer
list_ del_
dev_ id
atomic_ read
_SEC ON
ANE_STATUS_ GOOD
" Z
D 2
d listÄ
ÄÄÄÄÄÄÄÄ PKIX
Äi st
lin d
Ä4 00
CT X_
bind ing_
" \"Ä
q os
u it_
Ä counter
lo p
_c r
Te ch
reserve d_
ÄGF_ LOG_DEBUG
Älua_ to
ATEG ORY_
int "
6 '
B V
i map_
Äc ell_
ÄGL_ FALSE
f an
j i
ÄÄÄÄÄÄÄÄ ps
ÄÄÄÄreturnÄ rv
P LAYER
ÄÄÄÄÄÄ error
un usedÄ
go to_
Äse quence
fc loseÄ
COMP ARE_
ÄGtk WidgetÄ
>Ä <
Cla use
rli m_
d info
Re po
Äx x
igno red
Spe edÄ
], ÄÄÄÄÄÄÄÄ
re r
ss ert
_P L_
ÄB B
we bu
_pointer_ size_size
Äconfig uration
Tool tip
Ämat ches
listen erÄ
HEADER _SIZE
_d iff
JO B_
iov_ lenÄ
G IF
de ps
ÄÄÄ break
MA Y
set_ propertyÄ
_in stance
Frame work
WORD Ä
ÄNU L
D UMP_
ÄÄ free_
ÄÄÄÄÄÄÄÄ cpl_
sw izz
Äg_ s
IO Device
TO O_
" check
C TRL_
k ip
Ä select
ÄÄÄÄ SET_
Äe a
b roadcast
o 1
lement s
PROTO COL
ÄFOR MAT_
n autilus_
ÄÄÄÄÄÄ rÄ
di stribution
RE TRY
up load_
device_ id
DR V_
Termin ate
" ::
" HTTP
g n_
st on
s_ mutex
ÄC all
FI RE
Äcon vert
ÄÄreturnÄ p
ÄH U
Ser vices
ERR_ NO_ERROR
Äsi g_
GTK_TREE_ VIEWÄ
ÄÄÄD ENTER
6 kl_
x f_
an im_
Äf m
ÄS rc
start up_
ÄT CL_
MAJ OR
Get Integer
tmp l
ÄB AD
Äcolor s
Sho uld
auto m
D q
d g
Ä encoding
ÄÄ sizeÄ
Äa sn
aj l_
. com
Äp idÄ
ERR_ INVALID_
MIS MATCH
O pa
n posÄ
ÄÄÄÄ cp
en queue
RE VER
ÄS C_
Con cat
_P ar
file_ list
"gl ProgramUniform
MY SQL
A 2
Per f
=Ä %s\n"
Ädest ination
S_P r
avail_ outÄ
S ci
ÄÄ get
con e
l_ float32
po licyÄ
Äd er
SP C
ÄÄcaseÄ J
QU IC
bin s
Mapp ed
Äpap sz
ND_SOC_ D
Ä queue_
ÄÄÄÄ Add
in stances
ag raph
hash es
ine dÄ
test ing
TRANS ACTION
gtk_tree_model_ get_
T D
at ten
Äde bug_
session _tÄ
SQLITE_ OKÄ
Thum b
ms a_
Remove d
PROTO COL_
PRId 64
P 1
st ac
st p_
label "
ctr Ä
dx f_
e ofÄ
de structor
IS O_
ÄÄG dk
g_hash_table _insertÄ
. c
s ge_
ÄÄ ÄswitchÄ
ÄÄÄÄ t_
ar tÄ
voidÄ MainWindow
ÄT F_
ci a_
update d
ali se
mis match
E PERM
g roundÄ
p it
s n_
re verseÄ
set Visible
Äh s
ÄPyLong_ SHIFT
* (
i rect
En crypt
gpointerÄ user_data
R TS
x text
ER TI
lock ed_
vi c
Är vÄ
ÄU ser
y 0Ä
siz Ä
AR Ä
ÄÄÄÄintÄ x
ÄB OO
doc umentÄ
Function Call
finish edÄ
retr yÄ
for medÄ
ÄÄÄÄÄÄÄÄÄÄÄÄÄÄÄÄ free
_S B
Äg i
Äd ro
ÄÄÄÄÄÄreturnÄ TRUE
G StringÄ
s addr
ÄÄÄÄÄÄÄÄÄÄÄÄÄÄÄÄ i
li busb_
ÄÄÄ for
Äg uid
nt b_
Äsrc Size
lan _
Screen Ä
"w b"
Äpe erÄ
M issing
r ue
r ta
de g
structÄ ib_
Val ue_
ÄV K
"% c"
ÄRE DIS
ateg yÄ
Method s
STATUS _SUCCESS
Ädelta Ä
Äpow er
or th
1 b
Q MessageBox
S mart
al "
ÄintÄ level
Value sÄ
Ve locity
WAR E_
Äap p_
structÄsock addr
available _
condition Ä
intr o
INS UF
n sp
AT YPE_
EN VÄ
Äre sponseÄ
im gÄ
Äth reshold
enc seq
task_ dataÄ
arr yÄ
Fo re
pan e
2 e
start ing
sock addrÄ
MI ME_
Äbit sÄ
ÄCRYP TO_
A bout
R pc
j it
z bar_
ap ol_
size_tÄ lenÄ
Äu uid
Ptr ArrayÄ
tx q
Float 32
of_ node
Phy sics
le xÄ
un wind
_p latform_
structÄ snd_pcm_
AN GLE_
FILE S
g_object_ refÄ
contain sÄ
socket s
note s
avail _inÄ
INSUF FICI
Ä interval
in i_
ÄT arget
TEST_ P
R Q
f ly
ct ypeÄ
ME TR
Byte s_
LD AP_
__ecereNameSpace__ecere__gui__controls__ Edit
__ecereNameSpace__ecere__gfx_ _
" send
v l_
str vec
ck etÄ
cs s_
BE Ä
full path
Ägl m
ÄÄÄÄh b_
Constra ints
Ädis able
KH R
re portÄ
__ length1Ä
button _p
orig in_
find_ first_
ÄÄÄÄ strcat
MA PÄ
Äw m
KE D_
Comp il
Äreg istr
content_ type
D 1
c al_
ÄÄÄÄÄÄ str
Äg g
ÄS R
ÄÄÄÄintÄ r
ÄR un
iter_ next
D ONT_
p name
ÄÄÄÄ is_
ca s
RT MP_
color_ typeÄ
wpa s_
Dom ElementÄ
Der ived
"default "
B roker
j pc_
LE EP
ÄT W
button InputMap
phy s_
Ädepth Ä
GPU _
" call
G N_
_p eek_
Äs lotÄ
ÄGL_ TEXTURE_
atomic_ int_
Äge e_
Interpret er
Äsnd _pcm_
5 f
M X_
c db
l nÄ
ÄÄÄÄÄÄÄÄ outÄ
dir "
dev_priv Ä
voidÄS et
remain ing_
combo_box_ get_
ÄMat rix
SECON D
ap ic
)Ä "
ÄÄÄÄC PL
%02x \n"
* )
G lib
y ield
Re vision
voidÄ Test
Set s
line buf
oper atorÄ
ÄÄ privÄ
rec vÄ
ÄR ow
Bar rier
andid ates
:Ä%u \n"
exp ortÄ
e lev
Ä entropy
ÄÄÄÄ g_return_val_if_fail
buffer sÄ
as k_
Oper ationÄ
Ätime _tÄ
_PRE SS
Ädisp lay_
Äpe er_
ENCOD ING
_destro y_
12345678 90
MAJ OR_
OPNOTS UPP
B N
c atch
ÄÄÄÄ krb5
ÄÄÄÄÄÄÄÄÄÄÄÄ a
_f s
ptr s
Item sÄ
debug ger
Per mission
cv t
argument sÄ
_CLO SE_
ulto bjÄ
Cancellable Ä
W AL
p inÄ
ÄÄÄÄ dest
file_ sizeÄ
Äpo licy
run timeÄ
location s
Bytes Per
USH ORT
Äwpa _s
> %s
intÄ kÄ
ÄG en
endif ÄÄÄÄÄÄÄÄÄÄÄÄÄÄÄÄ
ep i32
test_ and_
G DBus
p 3
Ä ses
ÄÄÄÄ HAP
to _b
f_ get_
Window Pos
Mo veÄ
From Obj
rev s
jack _
LIT T
D ex
Äp latform_
rb tree_
ÄÄÄÄ errnoÄ
Äg fx
Äx 2Ä
ph one_
ÄA cpi
Ätcg_ ctx
w 1
ÄÄÄÄÄÄÄÄÄÄÄÄ LOG
disp ose
Assert 2
numberÄ of
cla mp
MIP S
R ig
p Ctx
ÄÄ unsignedÄintÄi
ÄÄÄÄÄÄÄÄ rvÄ
g_ simple_async_result_
cr t
aliz er
tit u
SQL ite
ue st
Äg s
on_ error
MSG_ DEBUG
ÄGFP_ ATOMIC
char t
9 x
Ä heap_
ÄÄÄÄÄÄ while
riv ate
ÄM on
Äg_ file_get_
ÄÄÄÄÄÄÄÄÄÄÄÄÄÄÄÄÄÄÄÄÄÄÄÄÄÄÄÄ break
proto buf
FIN ISH
Fig ure
3 0_
ÄÄÄÄ max
s_ db
state mentÄ
pub key
ÄImGui ColorEdit
S OCKET
ÄF loat
Ä3 600
SHAD ER_
Äm ix
ORI ENT
G ain
ÄÄÄÄÄÄÄÄ st
su bject_
we ek
Äarg p
Ä12 8Ä
bound sÄ
D ummy
ÄÄÄÄ POSIX_
ma ch_
Ät ty
obj 2
TH Tensor
object s_
Handle ScopeÄscope
ener g
nest ed_
Äalign ment
_CONT ENT_
trin sic
'H '
0 8x
f putc
ÄÄÄÄÄÄÄÄ file
ne ar
th r_
_S ORT_
ÄÄÄÄÄÄÄÄÄÄÄÄÄÄÄÄÄÄÄÄÄÄÄÄÄÄÄÄÄÄÄÄ break
Äg ui_
ID X_
ÄMBEDTLS_ ERR_
O idÄ
ÄÄreturnÄ rc
pre sen
os_ free
G SS
V K
in ity
_C ORE_
ab ili
_tmp Ä
op_ array
' ,Ä
d sa
ÄÄ memsetÄ
ÄÄÄÄÄÄÄÄÄÄÄÄ server
ÄÄÄÄreturnÄ c
device sÄ
From Long
FS P_
pw m_
JSON Ä
Äx2 64
Äextr a_
Ä typ
ÄÄÄÄ AV
Äc pl
Par seÄ
rs a_
:Ä% p
Vec 2Ä
ÄMAX Ä
INITI ALI
Dig its
yc les
Z ONE
_ dataÄ
ÄÄÄÄ flagsÄ
tÄ toÄ
_C Y
Ädata _len
Äpro perties
Inter valÄ
Äinte gerÄ
C ipher
I ON_
v ifÄ
ÄÄÄÄÄÄÄÄ A
ÄÄÄÄÄÄ cÄ
bu ddy
structÄ super_blockÄ
AL T_
wa y_
Äsk ipp
unref 0Ä
spin lock
"To o
d_ sizeÄ
cr l
char_ uÄ
HAL F
_SELEC T_
ÄBe gin
ÄÄÄÄintÄ j
position s
Cont entÄ
Edge Ä
coe f_
' U
ÄÄÄÄ is
s_ map
list_ head
MS K
wr ongÄ
lex er_
assign ment
ILLEG AL_
LEF TÄ
ÄÄÄÄreturnÄ d
AN TL
ÄL J_
Äflag Ä
GI __
Sing leton
d ptr
Ä_ _PYX_ERR
ifdef ÄP
data_ get
ast e
multi ple
Äno t_
globus_ l_
TCL_ ERROR
ÄÄÄÄÄÄÄÄ log_
data lenÄ
ASSER TE
pass word_
COMP ON
Äargument s
up s_
SS H
Buffer SizeÄ
return_ error
spin_ button_
Ägtk_ entry_get_
ctx_ t
_CR IT
tm_mon Ä
W SA
k vm_
Ä metadata
in et
intÄ sig
Äp anel
_S WIT
Är w
ÄÄintÄ iÄ
Array s
Ste pÄ
H RESULT
L ARGE_
on line_
un load
Ne mo
__pyx_L 1_error
short cut
ÄÄ Äprintf
Äd r
Äa z
ÄO TF_
u32 _
As set
align ment_
Äat of
Ädim ension
_SEQ U
DYNAM IC
C Test
f cinfo
p hoto
w pÄ
0x 10
" SetÄ
ÄÄÄÄÄÄ rcÄ
Äf 1
MIN OR
UInt 64
Redis Module
) .
T yÄ
W ndÄ
h or
p In
q 2
le pt_
Äblock s
pli erÄ
_PC M_
a war
ÄÄÄÄÄÄÄÄÄÄÄÄÄÄÄÄ d
GL uintÄ
Äsp Ä
First Child
Drag Drop
ÄALL OC
ÄÄHPNode StyleSet
T ls
g km_
ÄÄ xÄ
_P OP
Par m
ph dr
Ma ch
NE ED
Off Ä
Äcont ents
Äinte l_
CHAIN Ä
B on
ÄÄ check_
ÄÄÄÄ context
coun try
comp act
quer ies
last_ error
Ägtk_ text_
ASSIG N
D _C
bu m
Menu Bar
pass wdÄ
GtkTree Iter
iden tity_
C mdÄ
a ut
Äp ci
imple men
K M_
f g_
_t c
UN WIN
norm alize_
hasÄ been
simple Ä
ÄYGNodeLayoutGet Left
an tity
returnÄ S
_STAT S
ob stack
Callback s
"\n \n"
_PR INT
union Ä
Ä fill_
ÄÄ add
ÄÄÄÄÄÄ Äbreak
it "
to Bool
um an
build erÄ
unit y_
sink pad
PG_ RETURN_
MONIT OR
: Äno
G wy
b ur
ÄÄÄÄ ext
ÄÄÄÄ unsignedÄlong
str ipe
ER L_
vi s_
par a
AM D_
DC ALL
REC ORD_
8x 8
ÄYGNodeLayoutGet Top
bran ch_
x in
Ä leftÄ
_re size
icon s
warn ing_
_release _
un setÄ
co Ä
read only
Sp here
endÄ of
Ä_tmp 8_
_pop up
Switch To
C AN_
m iÄ
p tile
z 1
le 16
m_ name
buf p
Äg rp
pp ISteam
open ed
Te mpÄ
dat um_
PATH LEN
if fÄ
Q R
ad de
get_ int
Get Point
Ch an
EL TÄ
_put c
Äover ride
ÄÄÄÄÄÄÄÄÄÄÄÄÄÄÄÄ default
_ST ORE
Vector 3f
TIME Ä
Regist erÄ
ÄSCM_ i
\n\ ÄÄ
c 4
Ä List
Ä Command
re map
sc i_
fil p
Inter action
c ifs_
m ms
Ä objectÄ
le 32_to_cpu
Äi l
ÄG lobal
ÄF S
_b ar_
htt pÄ
Err Msg
g sizeÄ
ul Ä
arg ument_
Äth resh
ipv 6_
hso tg
ÄÄ file
ÄÄÄÄÄÄÄÄ dataÄ
_de c
EL F
int64 Ä
selector _
ÄÄÄÄÄÄÄÄÄÄÄÄÄÄÄÄ r
_p attern_
key 2
attribute s_
5 K_
_ data_
wh enÄ
sf x
D cm
h ub
ce ed
AL ERT
Äj s
ÄO S
READ Y_
Ad ded
_STATUS_ OK
toggle_button_ set_
f hÄ
ÄÄ Äfree
read_ config_
ÄN C_
VER T
MAX _P
Äsp lit_
br k
Ä__ecere NameSpace__ecere__
CRYP T_
HOST_ WIDE_INT
Receive d
Ä655 36
'5 '
se at
ar ityÄ
Äi mm
sc f
Ä0x 000000
De vice_
ÄI B_
\" ,
Äres our
ÄCON FIG
ÄImGui Table
%02 x"
PROTO BUF_
ÄYGNodeLayoutGet Height
orient ationÄ
ÄSTATUS _SUCCESS
G FileÄ
16 x
my sq
ÄPy Dict_
[%s ]"
L G_
t ds
ÄG ParamSpecÄ
ÄT e
ÄD ATA
ÄE Ä
cal i
cf q_
Not Found
INITI ALIZED
ASY NC_
ÄH5E_ BAD
n readÄ
ÄÄÄÄÄÄ char
Äp File
32 0
Äg_ list_prependÄ
Th an
mw ifi
d aÄ
in "
ÄÄÄÄcaseÄ 3
ÄL V
0x 01
CLO SE
W OUL
Äid s
User Data
N autilus
yp Ä
mo bile
%s )\n"
Äk i
draw Ä
Äab ort
b inÄ
li bÄ
Äre cur
FI ID_
_CH AN_
KEY S
SN MP_
itu deÄ
HWND Äh
l c_
p node
In _Ä
ser ies
_P rint
AN K_
bus yÄ
curren cy
" 2"
[ ^
2 0Ä
H yper
ÄÄÄÄÄÄ P
temp 2
Äerr _
hd c
sha ke
memoryÄ forÄ
Re start
mo tor
sc mp
met atable
A B_
S GI
Ä common
ÄÄÄÄreturnÄ retval
fd sÄ
FIR M
MQ TT_
Ägdk_pix buf_get_
' 6'
ÄÄÄÄÄÄÄÄ retvalÄ
Äin ÄtheÄ
list_ count
Äz er
ÄÄG _CALLBACKÄ
high light_
opa queÄ
_emitÄ 0x90
if a
f at_
el t_
Äf ol
ac cur
ver ted
is_ null
ith erÄ
_s cope
"% lu
Block Index
Inter sect
rs c_
ÄFI EL
ÄÄÄÄg_ assertÄ
dma Ä
UInt 16
ÄJS ON
"org .
bool ÄÄ
A spect
B an
V 3
e state
ÄÄÄÄ Log
RE ATE
structÄ isl_
M_ ERROR
ÄB TRFS_
int_ t
fra c
EXEC UTE_
Äwr iter
ÄTh read
u fa
_S y
Änew _size
wx Command
Äco eff
Wr iterÄ
W K
error :Ä
Ä2 0Ä
cre ment_
trans mit
Äq p
_back end_
MI ZE
\r "
DECL ARE_
Äfe atures
Ägam gi_
ÄÄ rcÄ
ri s
Äm 1
ÄE POLL
_e mpty
Ext end
"( "
escape d_
or ted_
Ä SET
Äp sf
Error Message
pri ority_
ÄG_ N_
_CHAN GE_
adv ance_
pref erred_
'y '
log 2
m 68
Ä ol
ÄÄÄÄÄÄÄÄÄÄÄÄ data
ne gÄ
ff setÄ
ex c_
Ex pi
gtk_ container_
sym tab
DV B
gtk_builder_get_ objectÄ
A verage
d /
ÄÄÄÄ UNUSED
_c ar
end_ of_
my req
Äfile "
ax es
Äfile_ name
Da mage
L K_
ce d_
In coming
Äb lue
ÄF irst
cp ath
work ers
ÄÄÄÄw sptr
ÄYGNodeLayoutGet Width
forwar dÄ
ÄÄÄÄÄÄÄÄÄÄÄÄ exit
mo st
Ä0x 11
go al
ÄÄg booleanÄ
Char act
by_ nameÄ
GU MBO_
hb_ dict_
string _tÄ
start sWith
ÄD AG
trans formÄ
REF Ä
iter_ nextÄ
_SP IN_
GTK_TREE_ MODELÄ
" gs
R H
ÄI B
Ä5 6
cf qq
Zero Memory
enou gh
ÄÄÄÄÄÄÄÄÄÄÄÄÄÄÄÄ ÄifÄ
ÄÄÄÄÄÄÄÄÄÄÄÄ j
Äh our
as si
src Size
IOC TL_
" ;"
S LOT
Ä usb
re verse_
ÄÄÄÄÄÄÄÄÄÄÄÄÄÄÄÄ b
op 0
err h
AR ROW_
RES ENT
GTK_TREE_ MODEL
Neg ative
p f_
Ä MAP
ÄÄÄÄÄÄÄÄ valÄ
De vices
Äe i
structÄg fs2_
=Ä0 ;
T opÄ
Ä sid
ÄÄ 6
g_ source_
di git_
64 4
ÄM F_
ingÄ %sÄ
RA G
DO WN_
Ädif fÄ
d pi
Ä audio
ÄÄÄÄ Write
ÄÄÄÄÄÄ lenÄ
rea son_
,Ä --
UR LÄ
Ämode lÄ
ÄZ STD
_bit map_
_cb k
krb5_ contextÄcontext
ÄINVALID_ HANDLE_VALUE
Evalu ate
tr c
TR O_
rc v_
tim ers
' k
F ol
ÄÄÄÄÄÄÄÄ string
MC InstÄ
loop s
Ärun time
Clip Rect
" Add
k printf
p xÄ
_p endingÄ
IN ET
da y_
bf qd
' q
ÄÄÄÄÄÄÄÄ int32_tÄ
ÄÄÄÄÄÄ voidÄ
ms r
ÄS 2
:Ä (
Äh al
pk tÄ
"p unpck
CUR LE_
iov _baseÄ
traffi c_
B IO_
G Arrow
N EXTÄ
P references
m sec
r dÄ
de cÄ
ÄÄÄÄÄÄÄÄÄÄÄÄ Set
ca b
Äd m_
transp ose
FD _SET
ÄRANGE_ MASK
R outer
ÄÄ unsignedÄlong
Äp 1Ä
RE AL_
_PRO CESS_
dbg s
Resol ver
Äp ending
_per iod
f alseÄ
v n
ab sÄ
session s
ÄG_ MAX
wal kÄ
JO IN
ÄMBEDTLS_ ERR
arith _
Vis ual
Äwar ning
INSUFFICI ENT_
F ade
y i
pi _p
sup port_
s an
to s
structÄ ocfs2_
TR ACK_
ÄF F
ÄL C
rt sp_
CON TEXT_
SCM_ ARG
LEVEL Ä
D ROP
x ref
Ä original
ÄÄÄÄ assertÄ
de que
la sh_
Re sume
LOG_ NOTICE
Äth e_
stamp Ä
action_ group
GM ENT_
nomi al
v len
ÄÄÄÄ name
mat er
New String
os b
current Index
Range s
"Error Äin
APP LIC
MLS_ DC
" Hello
( ?
E 1000_
U FFS_
re stÄ
s_ ptr
Re open
Get Pointer
Äm_ b
Sec ure
G Func
z stream
ÄÄÄÄÄÄÄÄ local
d_ info
Äf un
SE L_
Ä_ glew
id_ str
requ encyÄ
frequ encyÄ
break Ä
ÄÄ op
info _get_
ÄF rame
str_ append_
hex .
Äel t
s_ file
ÄD atum
Äch o
qual ityÄ
TREE_ OPERANDÄ
tick et_
job_ id
ab str
_CON TINUE
Äbool Äis_
writ ing
miss ing_
tracker- sparql-
_PR INT_
F 3
t sk
de lÄ
un reachable
constÄ vector
Lo d
To File
gtk_tree_ path
dete cted
Second ary
MG MT_
ÄHO ST_
te m_
tr x_
SE CUR
ÄÄÄÄreturnÄ Q
map i_
10 "
RA P_
Vis u
Äsrs_ success
j ava
s IntÄ
ÄÄÄÄ cm
str ict_
lo om
Äc ar
_b Ä
mode sÄ
view s
_SE EK
Color map
ÄRE AD_
fra ction
WCHAR Ä
Ämachine_ mode
d it
k b_
n P
is er
gra ms
Ser vable
READ ONLY
scal ar_
DIALO G_
sun _path
me sh_
intÄ cÄ
structÄ vm
TE MP_
ser ve
_F ULL
Di stÄ
_pre v_
ÄO_ NONBLOCK
Circ le
char setÄ
m mÄ
p len
v addr
Ä signal
Ä D_
comp act_
mu st_
object_ type
arch iveÄ
Äop 2
pop up_
desi red_
ÄHE AD
n ng_
Ä val_
ÄÄÄÄ offsetÄ
el set
structÄ acpi_
ED GE_
Ä_tmp 6_Ä
Sub Image
resol ver
xmm A
sampl ing
Tou ch
Äb w
Con sensus
foo ter
icon_ view
ENC Y
SHA 1
RU LE_
A K_
AT ER
Access ory
_SIGN AL_
S uccessÄ
Type Id
match ing
Do mainÄ
_partition _
_SGI X_
D at
Ä caseÄ0x
Ä columns
ÄÄÄÄÄÄÄÄÄÄÄÄÄÄÄÄ x
buf ev
Än n
_C UST
lag sÄ
be t_
msg id
Ämax len
BACK GRO
SIG INT
Äoff _tÄ
ELEM ENTÄ
"text "
or tedÄ
g cry_
val _tÄ
g_ warning
sh ar
caseÄ X
mode _tÄ
group s_
log_ level
ÄÄÄÄÄÄÄÄcaseÄ MENU_ENUM_LABEL_
Mark up
MEMB ER
Äg o_
ÄÄreturnÄ status
attr ib_
For k
height "
stream_ id
With out
ÄÄÄÄint ÄÄÄÄ
GM ENT
" is
6 8_
T "
p dÄ
ÄÄÄÄÄÄÄÄ gotoÄcleanup
se enÄ
vo ice_
%s :Ä%s\n"
size_ size_
Type Name
ÄÄÄÄintÄ c
Äto o
_pre sent
coll ation
Äsl ur
"co uldn'tÄ
Äsho uldÄ
" outÄofÄmemory
ÄÄÄÄ conf
ÄÄÄÄÄÄÄÄÄÄÄÄ gotoÄerror
ÄF C_
Op tim
Node _
_de scriptor
ific ationÄ
Multi ply
gtk_widget_ destroyÄ
RELE ASE_
DESCRIPT OR
ÄÄÄÄ init
ÄÄÄÄÄÄÄÄ get
ÄÄÄÄÄÄÄÄ buffer
ÄÄÄÄÄÄ info
UB YTE
RC C
stub Ä
_pk t_
Äsur f
" 4
C ACHE
c buf
m and
Ä used
pe ers
Code s
sm c
Valid ation
DWORD Ädw
Shap eÄ
ony mo
ce iv
Äm anager
QU AD
Bit mapÄ
Ätr ig
%[ dest
__pyx_t_ 3
structÄi wl_
l_int32 ÄÄ
Äweight s
Deleg ate
'G '
ÄÄÄÄ opt
ÄÄÄÄÄÄ Set
un link_
il ing
Re ceiver
ec ma_
pc d
Ädi v
ÄÄÄÄÄÄÄÄÄÄÄÄÄÄÄÄÄÄ break
Ä0xFF Ä
encryp ted
Äsource_ p
Ädevice_ param
1 e
ÄÄÄÄ unsignedÄintÄi
Äd ur
Äd list
Len um
fli ct
PA K_
TRANSP ORT_
d ri
r ho
t or_
ÄÄÄÄÄÄÄÄ uint64_tÄ
la ceÄ
Än y
file \n"
sc atter
Äg_ slice_
ses sÄ
value_ typeÄ
Attr s
parent s
__pyx_L 0
"text /
A W_
Z VAL
ÄÄÄÄ emit_
pa gate
inter lace
Info s
Äto upper
Reg ular
DEC IM
TRAN SL
ÄÄÄÄprintf Ä
delim iter
LN K
for med
" pre
( !
ÄÄÄÄÄÄÄÄÄÄÄÄ z
Äma in_
ÄS_ IS
ÄMIN Ä
G CP
J s
Ä memcpy
Ä LLVM
LO S_
size_tÄ jÄ
mi x_
Äext 2fs_
Ästrdup Ä
Äuser name
HANDL ER_
TSR MLS_CC
" data
um ber
ref count_
line ar_
Sequen ce_
Äg_strconcat Ä
i \n"
In st_
ÄSE EK_END
define d_
B one
G lo
G amma
q 1
in dic
ÄÄÄÄÄÄÄÄÄÄÄÄ lenÄ
structÄ cx
Äa ir
ÄM D
02 0
sv c
Ä12 34
256 Ä
Äwor ker
view_ column_
ÄTh eÄ
ÄÄÄÄ fs
an sÄ
Äi den
key board
WIN _
Pixel Ä
=Ä% dÄ
Ämodu leÄ
errno _
A ABB
te red_
ad s
Äf uncÄ
Äg si_
sw Ä
uff man
destin ationÄ
5 k_
R a
el ser
to k_
Äp len
lat ency_
Sc en
Äerror "
". ."
_PAR AMETER
B i
v host_
ÄÄÄÄÄÄÄÄ ÄintÄ
AT T_
IS R
Äbo ok
caseÄ0x 8
den ce
() Äfailed"
'~ '
" ?
m Data
Ä hashÄ
Ä lower
png_ptr Ä
Äback end
g_clear_ errorÄ
se a
ac b
ÄS ource
Äh r
Äcon ta
He adÄ
_CL K_
'V '
' 8
g di
g iv
ÄÄÄÄ base
ÄÄÄÄÄÄÄÄÄÄÄÄÄÄÄÄ switchÄ
ÄG SS
list_ entry
bin log_
j arg
n at
SE ARCH
UN SUPPORTED
Äin ner
md dev
num_ components
war nÄ
wait ing_
not_ of
ÄVi ew
' W
G 2
S lash
MA LL_
De bugÄ
su ggest
Data Type_
lob alÄ
_s ort
Int 16
"B adÄ
ÄÄÄÄÄÄg t_
__ecereNameSpace__ecere__com_ _e
Rig id
ufa cture
1 d
M "
v in
ÄÄÄÄ table
ÄÄÄÄ Im
ext end_
Äin d
_re port_
_SH ORT_
T d
s mooth
u 8_
ÄÄÄ size_tÄ
ou se_
ÄT ARGET_
conf _t
update dÄ
Vertex 3f
%08 xÄ
B 8
ÄÄÄÄ cl
s_ read
Än t
ÄA E_
ep silon
hash_ to_str
Äpath name
Äret valÄ
_COL UMN_
RS A_
F ee
Ä Window
Ä utf8_
ÄÄÄÄ IM_ASSERT
ÄÄÄÄÄÄÄÄÄÄÄÄÄÄÄÄ returnÄtrue
ap ic_
ÄÄÄÄp ng_
Input Stream
Äcont ent_
Sample Ä
Äwith Ä
sic al_
brid ge_
DEN IED
M i
R nd
V AS_
t j
al ty
cre dÄ
work ing_
Pri mary
spaw n_
S MALL
en ceÄ
ve locity
ÄD W_
handle d
METHO DI
metr ic_
Qual ity
ÄTSR MLS_CC
T mpÄ
h eld
Ä side
ÄÄÄÄÄÄ gnutls_assertÄ
get Instance
ÄÄÄÄreturnÄ buffer
LO SE
ic p
ÄC ALL
RO LL_
iter ations
LA _
ÄT K_
Änew ÄD
PU _
iss ue
ÄÄJ DIMENSION
Äsla ve
JSAMP ROW
s vÄ
te ction
constÄ BYTE
ati o_
AD MIN
Check sum
FFFF FF
BL K_
feren ces
aren aÄ
mut ation
": "Ä
g_string_ append_
ÄÄÄÄÄÄÄÄ V
siz er
_C NTL
Get Magick
ÄÄÄÄG wy
UNU SEDÄ
LC D_
Ästy ler
edje_ object_
u 2
z hp
Ä Core
to do
Äre d
En tityÄ
_s rc_
BO ARD_
Äcli p_
Scan ner
Cre dential
iot js_
Ä__pyx_L 1_error
S oft
ÄB _
Ref lection
Filter s
intr in
ULONG_ PTR
Ä INVALID
ÄÄÄÄ env
intÄ b
Äf v
Äh 1
sr c_str
key_ tÄ
15 _Ä
() );
ni cÄ
compo sitor
ÄÄÄpng_ debug
Äng x_p
( %dÄ
ÄÄ sprintf
ar io
ÄÄÄÄÄÄÄÄreturnÄ nullptr
opt s_
EP SILON
ge d_
to Utf8
err numÄ
app ed
MO SQ_
ÄN F
ÄÄÄÄEXPECT_ FALSE
dev_priv ate
B ANK
e qÄ
g ri
ÄÄÄÄ update_
ÄÄÄÄ GtkWidgetÄ
tr ic
ÄÄÄÄÄÄ bool
ex if
En sure
conne cted_
out_ of_
_SH ORT
UT_ sint32
Äen tity
WOR LD
_CODE C_
d n_
he artbe
ÄÄÄÄÄÄÄÄreturnÄ ajFalse
AV R
make_ tuple
reser v
Äformat _
Gst PadÄ
_function Ä
glob alÄ
} }
F SC
Ä0x C
addr infoÄ
_ST D
ÄO ffset
TEX COORD
TIM_ OC
stringstreamÄ ss
ÄAc cess
MST rue
mpu 6050
i 0
ÄÄÄÄ hash
buf _tÄ
error _freeÄ
pp ed_
tm_md ay
'O '
P ager
S cal
T 3
se ti
sp an_
no uve
_f cs_
es "
Äin dx
Ac cessÄ
New State
copy_ from_
Äext ent
( 1
o i
Ä editor
fi id_
ÄG I
ÄG t
run ner
gener ated
fail Ä
ÄÄÄÄA j
k d
l cpy
ÄÄÄÄ tr
ÄÄÄÄÄÄÄÄÄÄÄÄÄÄÄÄ memcpy
us ing_
am era
MO UNT
Äelem ent_
shr ink
== Ä
g fs2_
returnÄ GF_
intÄ l
ÄÄÄÄintÄ lenÄ
button sÄ
Äho ok
too ÄmanyÄ
" )\n"
b ility_
v orbis_
caseÄ R
AT PAK_
pu c
DO UT_
Ä__ecere Prop_
Dif fÄ
' Y
F G_
sp c
Äm lx
cre ds
TYPE_ PÄ
ÄA VR
Th resh
Out er
_pre _
]Ä =Ä
sem ble
ffffff f
_COMM ENT
METAD ATA
W i
e per
Äi 18n
set attr
Äg cry_
RO P_
ÄT MP
Äcol lection
CE_ Failure
_param_ spec_
e ve
h yp
o sc
me sg
ÄÄÄÄÄÄ nÄ
IT CH
as set
List Iterator
bytes_ read
%x "
Up load
0 6
ÄÄÄÄÄÄÄÄ M
intÄ yÄ
g_ debugÄ
AL G_
Pro mpt
Ästr cpyÄ
BOO T
trig gerÄ
lua_St ate
language Ä
ÄSQLITE_ OK
QUANTI ZE
g lade
tr x
s_ name
iz ard
ST AND
ÄX 86
ÄSE C_
ÄÄÄÄImGui Window
C ORE_
L ongÄ
c ity_
g x
ÄÄÄÄg s_
ÄÄÄÄP ORT_
Register Class
Dist anceÄ
spin_lock _init
Äident ifier
Ämar ker
strbuf_ add
C plt
Ä signature
s_ table
il la
_f old
Val _
_CALL BACK_
rw lock
Comput ation
S uite
0x f
ll vm_
sq Ä
ÄX 2
Äini tial
LINU X
HORIZ ONT
ve ct
is ode
ÄP M_
sw ra
rt cp
per _pixel
99 9
struct_ def
Comb in
Ä Decode
id _t
_p lace
tion s
ÄB dd
ÄZ 3_
intÄret val
Can notÄ
DESC RIP
May be
ÄÄÄ n
net devÄ
Tool bar
compo site
Description Ä
xl ator
ATO MIC_
ÄÄÄÄ num_
al ready_
ge dÄ
un ame
_C RITICAL
Äm issing
ÄreturnÄ GF_
Äimage Ä
requi resÄ
Win 32
ÄÄÄÄÄÄÄÄt b_
__m128 i
g data_
lo go
s_ to
node _ptr
endif ÄÄreturnÄ
,Ä %dÄ
10 2
dev_ addr
device_ get_
create dÄ
IterÄ iter
BAD F
listen ers
NOT FOUND
ÄEV ENT_
selector Ä
BP F_
DRM_ ERROR
G AME
d nÄ
ÄÄ memcpyÄ
re mÄ
us able
ÄB S
Ve cÄ
x Plat
t_ info
ex istÄ
_de n
eff ec
histo gram_
Answ er
a us
f ence
o cÄ
Ä uint32_t
_p adding
ve ct_
Strea ms
da c_
uint16 Ä
H5 O_
RT SP
Or g
ÄÄÄÄ_test_ size_size_
choo se
Äp lugin_
ma hawk
AS C
Info _
UR PO
dup 2
spec ifyÄ
Change Ä
suc cess_
APPLE_ _
" to
n a_
p ta
Ä foundÄ
ÄÄÄÄ num
on ÄtheÄ
str ategy
ÄÄÄÄÄÄ new_
el tÄ
Äs 2Ä
_e pi
gtk_ dialog_
VALUE S_
argument "
ÄÄÄÄÄÄÄÄ gcharÄ
ÄÄÄÄÄÄÄÄÄÄÄÄÄÄÄÄ elseÄ
me mo
Äf cntl
Äc id
ÄÄÄÄcaseÄ LUA_
3_ noun
qla _
Ä SET_
git_ reference_
categ oryÄ
Ä lu
Ä attributes
def erred_
Äre v
sa _familyÄ
_de sc_
ÄQ u
Äarg 2
13 94
quanti ze_
structÄe 1000_
Q File
_P LL
group _id
header "
" NumberÄ
B ER
Ä Expr
re at
th rea
type_ node
ÄÄÄÄP rint
Encryp tion
const Äp
% iÄ
er ver
returnÄ buf
_C NT
Ästr 2
Äe val
ÄR X
SH ARE_
Func StateÄ
null s
invalid ate_
MU TEX
ÄÄÄÄFUNC_LEAVE_ NOAPI
" New
" On
V endor
Äf close
Äb lack
AS SI
Är m
es c_
IT K_
rect s
ÄÄÄÄN K_
ÄÄÄÄAjP Str
synta x_
"yes "
n api_
ca ug
Pro cÄ
ÄÄÄÄC YG_
Instr ument
voidÄ__ iomemÄ
S UCCEEDED
_b lob
ÄÄÄÄintÄ rcÄ
Inde x_
cat _
_PO WER_
Send er
uint_ 16
F AST
P W
in f_
ÄintÄ mode
Data baseÄ
_cur _
GtkTree SelectionÄ
ÄAR CH
Compo und
TSS_ E_
else ÄÄÄ
H PS
_ _Pyx_
re x
ÄÄÄÄÄÄÄÄÄÄÄÄ errÄ
Är l
ÄG Error
ÄD A
Key words
Ident ifierÄ
a fÄ
g_ array_
get Length
Äd lg
Size In
gtk_ label_set_
Ärun _
_pix buf
Leg acy
u dÄ
In sensitive
object_ cast
VI R
STD METHODI
hid den_
A EL
et c
ath 6kl_
MYSQL_ TYPE_
avr du
m cp
sh ash
Än or
lu sterÄ
pri o
17 0
XX H
andro id_
" en
G ID
M ini
W ANT_
X IO
ti pÄ
returnÄ T
ÄC D
ÄM ain
%0 16
attack _
VISI BLE
D Table
p z
Ä luaL_
str icmp
co e_
S_ R
Lo ss
Äse l_
TO U
push Ä
lat Ä
Äcor rup
b 43
ÄÄ strcpy
ÄÄÄÄ g_return_val_if_failÄ
sÄ andÄ
Äg ap
ÄH as
wr iterÄ
status_ code
ÄÄg_ signal_
tm_ min
Printf Ä
produ ct_
gtk_widget_set_ sensitive
l cd
Ä tagÄ
te mÄ
co ver_
In side
structÄ platform_
of p
Get File
TH ON_
Lock Älock
By Id
_pixel s
x509 _
ÄÄg_auto ptr
" error"
R L
ad m
Äp lain
Äs ingle
be low
Ätmp 3
buffer_ headÄ
war dÄ
draw _list
BUFFER _SIZEÄ
XP LAT_
_ ASSERTE
s st_
ÄÄÄÄ reg
de prec
s_ for_
ÄT P_
ÄÄÄÄintÄ err
_tmp 4_
GET_ SIZE
_ctr lÄ
EXCEP TION_
% #
H A_
g \n"
si o_
ex pectÄ
ÄÄÄ double
src 1
ÄQ Variant
ARE N
(%s ,Ä
lap se
x mp
Ä unsignedÄchar
ÄÄ __pyx_rÄ
ÄÄÄÄÄÄÄÄ QString
OR BA
length "
Äin o
Äe core_
_CO L_
Arg umentÄ
Exp lo
Ätr _
TAS K_
spectr um_
Visi bility
"application /
T ol
p fÄ
Ä fix
ÄÄÄÄÄÄÄÄ unsignedÄcharÄ
in cÄ
ÄÄÄÄÄÄ vtk
ta ken
Ät k
entry "
cat Ä
exec utor
ÄÄÄÄQ VERIFY
front end
_tmp1 2_Ä
g uint8
s ing_
ÄÄÄÄ current_
ÄÄÄÄ ap_
bu til
Äa md
read_ int
OBJECT_ UNLOCKÄ
GNU TLS_
Produ cer
thum b
ENS URE_
fu zz
S umÄ
X Log
h ÄÄÄÄÄÄ
p value
s_ b
ÄÄÄ EINA_
Re try
Get Child
key 1
pl l
LA V
Free Pool
VAR Ä
Cre ation
B AND
G fx
lo depng_
ff s
ifdef ÄD
_PRI ORI
float Äf
h mac
ÄÄÄÄÄÄÄÄÄÄÄÄ w
List Ctrl
ÄÄÄÄÄÄÄÄcaseÄ 3
Al locÄ
Äato iÄ
SU M_
applic ation_
B K
C y
Q _FOREACH
Ä intf
Ä READ
ÄÄÄÄ image
DE S
ÄC AN_
ÄP T_
At las
ÄnotÄ found"
dim sÄ
ali ve_
quo ted_
Star ted
NET_ PROPERTY
answ erÄ
VOL ATI
Util ity
too Älarge
%d. %d.
'^ '
. dat
Y Size
j cr
ÄÄÄÄÄÄÄÄÄÄÄÄ Ph
fo ot
get Current
ÄF UNC_
Äde tected
Direc tive
ERTI FIC
B enchmark
ÄÄÄÄ SDL_
re name_
Äs lice
ho ver
Ämo un
our _
Ämat chÄ
Äopen dir
OBJ_ NOTNULL
INSTRUC TION
S ke
a 3
d y_
i seÄ
m vm_
ÄÄÄÄÄÄÄÄ posÄ
in v_
di gestÄ
ÄS UCCEED
"Ä [
Data "
string_ append
fr m
Ämenu _
capabili tiesÄ
ÄTOK EN_
h ar
al ity
intÄ countÄ
g_ value_get_
_C RC
_f un
cop ied
gtk_ box_pack_
TEST Ä
RC V
verbo se_
INIT Ä
mac_ addr
uint_ t
vb 2_
_cursor Ä
list_pre pend
vlan _
esi l
p md
ÄÄÄÄ pt
ÄÄÄÄÄÄÄÄ strÄ
p_ data
Handle s
Base 64
Inter actor
PFNGL PROGRAM
ÄOB _SUCCESS
k id
ÄÄÄÄ time_tÄ
intÄ num_
_S LA
Äg_ ascii_
Tra its
ÄÄÄÄint ÄÄÄÄÄÄÄÄÄÄÄÄ
Äexp ression
repe at_
_PIX EL
CHANGE D
. \n
_S AVE_
pu _
db l
ifdef ÄG
rs s_
foc used
Alpha Ä
eepro m_
D GRAM
O OM
b 1Ä
ÄÄ N
structÄ iscsi_
SE XP
tx tÄ
Tree Widget
module _tÄ
]Ä [
ÄSEEK _CUR
I VE
ÄÄÄÄ ap
it s_
SE P
DE TAIL
in_ addrÄ
config "
Open File
Del im
Äalloc ator
Äran dom_
Ä internal_
s_ str
key board_
ip addr
in_ use
DEV EL
ae ad_
RD_ KAFKA_
i915 _privateÄ
E OPNOTSUPP
c msg
st one
lu e_
Äv ma
feren ce_
mid dle
Ob server
hydra _
bool _tÄ
E MP
e ps
n top
v w
ve redÄ
dir sÄ
\" \n"
10 6
_s chema
$ "
r spÄ
ÄÄÄÄÄÄÄÄ cv
me sa
ÄÄÄÄÄÄ png_ptr
data 1
G_ GNUC_UNUSED
wi g_
Äcl utter_
white space
G sm
k l
_P AD
mi tive_
bytes_ to_
Task s
accel er
f lex
y -
Ä sender
le "
_C LA
_f w
Äa a
ÄT able
ÄH D
Coun try
Usage Ä
25519 _
: %02
U sb
le ct
ÄÄÄÄÄÄ state
ÄÄÄÄÄÄ boolÄ
ÄC nil
Un pack
"% c
GTK_ FILE_CHOO
55 55
enou ghÄ
" 3
f ps
i mag
j j
Äg int
gÄ %
group _name
_e qualÄ
Äarg vÄ
ifndef Ä_
nil fs_
rece iv
_CONNEC TION_
H F_
ÄÄÄÄÄÄÄÄ DEBUG
ati ent
Äe q
Coun ts
copy_ to_
INDE XÄ
UD A
Äfs_ g_
ÄEXT 2_
TRANSF ER
Dx bc
I OR
b el
g constpointerÄ
Ä typename
ÄÄ obj
Äs aveÄ
of tware
ÄintÄ port
List Iter
SY NC_
wait_ for
k bd_
p Zip
s fÄ
ÄÄÄÄÄÄÄÄ coutÄ
Äf openÄ
ÄV OID
Format s
M SI
f ld
p Out
ÄÄÄÄ status
ÄÄÄÄ gotoÄerror
ÄÄÄÄ aws
ÄA UT
"% %
DO T
ÄIm Vec4
Ävar _
ga inÄ
abstr act_
8 60
ÄÄÄÄÄÄÄÄÄÄÄÄ __
Äre ference
ll x
pri m
Src Size
NAME_ LEN
Play ers
GLE W_
CRE ATE
ÄAPLOG NO
Form_p g_
C tl
L an
M op
an juta_
sp ell_
ÄÄÄ d
table _get_
ÄL INE_
top ic_
ance stor
Tim ing
Socket s
Script Params
cover age
f cntl
sp anÄ
new_ sizeÄ
NE ED_
SK IP
HO T
book mark
spin_unlock _bh
BUF_ INIT
ÄMI I_
b en
b undle
to upper
LE G
BU FS
ÄO T_
gtk_ entry_set_
ai m_
main_ loop_
Ätoken Ä
Imp licit
ÄÄÄÄre dis
attach ment
click ed
Äass ert
ÄPNG _COLOR_
delete dÄ
ag ing
filename s
page _size
ip_ addr
_bit mapÄ
ulk an
me g
intÄ width
sp ort
EN DED
AR K
TO O
user_ options
ÄRE SET
contin ue_
2 dÄ
N P_
R 3
b andÄ
to ut
intÄ s
OP TI
bit s_per_
UND ER
scroll bar
colle ctor
800 1_
ÄSS A_
WASM_ OP_
PRIORI TY_
natur al_
'U '
a kÄ
l ba
ÄÄÄÄÄÄ lua
em u_
ÄB C
ine d_
17 _
Äro ute
pref s_
MPI _CHK
structÄdrm_ i915_privateÄ
lar ge_
I ss
Ä uint8
Ä upper
ÄÄÄÄ uintÄ
RE SÄ
out len
ÄG IMP
_in c
activ ated
gtk_widget_ show
daem on_
A Z
Ä raw_
ERR NO_
Äv ha
LA IN
_ST OCK_
ÄÄintÄ x
ÄV C
ud a_
Runtime Error
% zu
T G
Ä addressÄ
in a
an noun
ÄÄÄÄÄÄ B
ÄS UCCESS
ÄP H_
Äpo intÄ
Äval s
req_ ctx
ani mat
avrdu de_
" malloc
M TÄ
Äc ategory
now led
ali veÄ
INI TY
Äg_object_ unref
Neigh bor
N IC_
U MB
str s
ÄÄÄÄÄÄÄÄÄÄÄÄ error
md ns_
Track Ä
brc mf_
N ON_
N oneÄ
c st_
f error
_b in_
io addrÄ
io mmu
array "
bt Scalar
Äcryp to
b dd
i ctx
ca ble
FI XÄ
Äv c
sub devÄ
ÄO bj
PU TÄ
connection _tÄ
rev entsÄ
expan ded
ÄPATH_ MAX
B SD
Ä Arg
intÄ resÄ
Co ins
ÄÄÄÄintÄ errÄ
ab y
activ ateÄ
_be gin_
Expression Ä
g int64
ÄÄ dataÄ
Äx p
ÄI RT_
PAR M
xm it_
lea fÄ
ÄMY SQL_
N ick
st l_
Äg ot
Äre port
bl it
GTK_ BOX
Äsy nc_
Print v
ÄÄÄÄt t_
Ämy req
_Co mp
\":Ä \"
"gs ld
P Y
d cÄ
en dedÄ
De fs
Äre move_
Äl m
Context Menu
Exp licit
'8 '
B ORDER
off setof
fa ct
Pro fileÄ
Ch unkÄ
VER TICAL
change sÄ
Äread dir
Cache View
Äac cel
Tab s
TX T_
MAR Y
APP LE
DCT SIZEÄ
_elem ent_
enem y
Ä bus
ÄÄÄÄÄÄÄÄ SET_
_C AL
_C AN_
Pro b
ÄD ate
ÄB ool
msg buf
Me an
xml NodePtr
Print able
MSG_ INFO
dat ad
in um
Äc 1Ä
ÄS F_
inter section
per f
per cent
GL float
Output s
WOUL DB
. 000
cmd line_
Work ing
Analy zer
ÄDBUS_ TYPE_
Äinser t_
Dq Layer
B BÄ
s_ buf
Äp lace
Äc n
ÄÄÄÄÄÄÄÄÄÄÄÄÄÄÄÄÄÄÄÄÄÄÄÄÄÄÄÄÄÄÄÄ ÄÄÄÄÄÄÄÄÄÄÄÄÄÄÄÄÄÄÄÄÄÄÄÄÄÄÄÄÄÄÄÄÄÄÄÄÄÄÄÄ
Ä3 3
ES L_
DBG CÄ
heal th
cl_assert_equal_ i
, Ä1
ss a_
UN REACH
Log Level
IL D_
ÄÄÄÄD X
thresh old_
Äisl_ basic_
xl ator_tÄ
" DB
Ä ub
up np_
with out_
sf b
OFF _
g_str_ has_
ÄÄÄÄNK_ ASSERT
v host
ÄÄÄÄ Äbreak
ca v
Äs ched
ati me
Äv 0
ÄÄÄÄÄÄÄÄÄÄÄÄÄÄ returnÄ
data_ typeÄ
ÄW ID
Rect F
ram ble
erase _
HID DEN
secp256 k1_
R FC
g float
mp d
ÄC F_
TYPE_ NONE
ÄE 1000_
dy namic_cast
ÄÄÄÄD BUG_
LC UI_
G round
ÄÄÄÄÄÄÄÄ ap_
ÄÄÄÄÄÄÄÄÄÄÄÄ k
Äp cm
Äs ge
sa y
Ästr m
List ÄÄÄ
FL ERR
compression Ä
ÄÄÄelse ÄÄÄÄÄ
c graph_
ÄÄ sqlite3_
g_ set_errorÄ
col onÄ
inter sect
Par ameterÄ
ÄB IO_
Bo dyÄ
Object Type
ÄÄÄÄstructÄ stat
save dÄ
Äfor ce_
ÄÄÄÄxmlSec Assert2
N N_
S ite
Äp ch
data 2
gen e_
sd mmc_
PU GI__
ÄJ POOL_
StatusÄ status
Äcan vas
pli ca
Äfailure "
ÄÄÄÄÄÄÄÄÄÄÄÄ dst
li p_
EX CL
Ädata base
Cur rency
Äconst ÄÄÄÄÄÄ
http 2
main_ window
HAL _Status
NAMESPACE_ ID
'k '
HPS OCKET_
N et_
sub title
GR P
Äelse ÄÄ
VECT OR_
LAR GE
d ht_
ÄG LO
Äv 3
fs 2
REGIS TRY
' \n"
e th_
DE LT
ctx tÄ
Sh ard
Vertex Buffer
Mon st
Äframe s
LIST EN
_cpu _
alle l_
Äwork space
EXTR A
ÄCli ent
8 _tÄ
u me
al th
ctx _p
Äh ow
ÄI 915_
Value Type
log_ msg
Äop a
PROTOBUF_ NAMESPACE_ID
ÄÄÄÄ last_
ÄÄÄÄÄÄÄÄÄÄÄÄ iÄ
Äg x_
ÄS GE_
Äw d
ÄÄreturnÄ s
LI CE_
_pro pagate_
blk g
Ämon th
suf fici
_SK IP
UError CodeÄ
2 P
h an
ÄÄ intÄÄ
un til
Äo id
wa yÄ
Log ic
LIN ES
bin aryÄ
buffe red
_prog ressÄ
backg roundÄ
structÄplatform_ deviceÄ
E LE
H L
is nan
key code
ip mi
all types
ÄJ son
", "Ä
wl 127
Ämat ri
ÄDE QUANTIZE
ifu 2x
R AD
X act
h md
G_ IS_
list_ remove
list_ len
close dÄ
sv r
pair _
ciph erÄ
NET WORK_
CONTR OL_
LOG_LEVEL_ ERROR
Ägra v
0 9
R 8
d d_
ÄÄÄÄ current
_p au
bo th
byte pÄ
git_ oid
Actor Ä
LIBUS B_
U GH
out "
PAR TI
D ST
Y B
ÄÄÄÄÄÄÄÄ flagsÄ
te ar
g_ strdupÄ
op e
Än dp
TI VE_
ÄH ASH
SY SC
gp Set
cho iceÄ
LIC Y
Äposition Ä
explain_ buffer_
handlers_ disconnect_
strcat Ä
ÄÄÄÄÄÄÄÄ int32_t
ÄÄÄÄÄÄÄÄÄÄÄÄÄÄÄÄ rd_kafka_
con stru
s_ free
pro mise
IC AL_
N_ ERR
_m in_
_pack age
Äu8 g2_
%c %c
weap on
_ q
status bar
png_ structrpÄpng_ptr
rk buf
Äio ctl
repo sitor
Äpix Get
DEL TA
8a 66
" UTF-
V "
ÄÄ Next
ÄÄÄÄÄÄÄÄÄÄÄÄ Äbreak
TR UE_
_in st
ÄV U
PAR T_
oo m_
success ful
X _C
b la
intÄ rÄ
Äg st_pad
'\ t'Ä
Äinte ger
if a_
3 DÄ
b r_
h n
m itÄ
ÄÄÄÄÄÄÄÄÄÄÄÄ statusÄ
la m_
get attr
ref s_
MS GT
Äbool Äis
ENTR IES
title "
err_ codeÄ
Äcolor Ä
rol lÄ
MENU_ENUM_ LABEL
thum b_
D Stream
b iÄ
Ä eventÄ
ÄÄÄÄ dict
Data Object
Object ID
Äevent s
ÄGL FW
ÄTI OC
returnÄ len
set Name
string 2
ÄS K
Ac cep
%sÄ (
AGE D
nv g
Work space
ÄÄÄÄÄÄÄÄgotoÄ end
Äcc v_
flu id_
break _
ÄÄÄÄ FREE
ÄÄÄÄÄÄÄÄÄÄÄÄ str
lin ux
am gi_
ÄM T_
LI C_
UL AR
Äpro ject
_print errÄ
root_child 0_child
OPER ATION_
bet ween
ÄNULL_ RTX
cohe rent
D ownÄ
i or
ÄÄÄÄ Verify
ÄÄÄÄÄÄÄÄ LOG_
Äc 2Ä
ÄconstÄ size_tÄ
Äj iffies
_m ul
Äsave d
_Ch annel
OUT_OF_ MEMORY
myp lr
tooÄ long
m xÄ
t on
ÄÄÄÄÄÄÄÄ test
returnÄ 2
s_ cnt
AS P
ÄÄÄÄÄÄÄÄÄÄÄÄÄÄÄÄÄÄÄÄ ImGui
im er
Di ctÄ
git_ config_
Sig Ä
Editor Ä
STY LE_
_ table
_S RC_
ÄÄintÄ nÄ
Path Extent
ÄÄf close
idx_ tÄ
* .
M ORE_
n lÄ
w g
mask s
Äto pÄ
DELE TED
ÄAC L_
INSER TÄ
and s
Äpath s
UINT 8Ä
" float
) :Ä
G nome
S END_
ÄÄ msg
ÄG D_
sub tree
TO OL_
14 7
Dire ctionÄ
nl p_
produ ct
Äct ype_
destin ation_
>%s </
Ä lim
ÄÄÄÄ UINT32
ÄÄÄÄÄÄÄÄ cur
ÄÄÄÄÄÄÄÄÄÄÄÄ X
constÄ xmlCharÄ
ÄC url_
var s_
Cur l
MISS ING_
repositor yÄ
k g
r port
ÄÄÄÄÄÄÄÄ doubleÄ
MP FR_
user id
ÄcharÄ constÄ
active "
servi ces
clean _
ream ble
pP ager
ÄÄÄÄÄÄÄÄÄÄÄÄ constÄcharÄ
ing Äa
data _ptr
res v
%s %s"
ÄH AND
av or
rk tp
Ä0x8 0000000
w rÄ
Ä Default
ÄÄÄÄ read
structÄ io
AR ROW
Är val
mb i
FIX ED_
GRAP H_
U INT_
d leÄ
Ä1 5Ä
NE AR
Tra de
Ro bot
style s
Si S_Pr
UNI TY_
Public Key
dvb _front
ÄSw ig
do or
\ 0"
Ä color_
ca lendar
pro j
face t_
SA MPLE
_PER IPH
'+ 'Ä
int n
Ä Co
ÄÄÄÄ hÄ
ig ation
su le
ÄR andom
LONG Ä
Ämu tex
INC RE
trunc ate_
B W
R oll
ÄÄ K
ÄÄÄÄ fÄ
ÄI C
Äarg sÄ
inte l
png_ const_
Äconne ct
i ke
Äc irc
structÄ nv
no ut
ser v_
list_ t
Äk p
MS R_
Äwh i
Process Id
0. 00
8 000
L T_
b a_
i ment
n api
n rrd
ÄÄ init_
icon v
glad_gl VertexAttrib
avrdude_ message
F sp
O SI
ÄÄ error
ÄÄÄÄ param
con vÄ
Äb m
Äpar ts
CR E_
verbo sityÄ
Ädouble Äy
Ätx n
PACK AGE
ro ve
par Ä
list_ size
10 3
norm alÄ
Argument 1
structÄb rc
component_ infoÄ
"test "
milli seconds
ÄCPL_ ERROR_
'q '
0 5
ÄÄÄÄÄÄÄÄ typeÄ
staticÄ gboolean
Äde l
ATE D_
Ägroup Ä
Magick PathExtent
OPTION S_
GTK_TOGGLE_BUTTON Ä
Ä open_
de crypt_
up rv_
ÄP RE
cp ssp
max lenÄ
db h
cr t_
Object Property
rec ptr
We ap
MULTI P
_flush _
wrapp er_
E ditÄ
M arg
t arg
Ä _f
mo reÄ
_t un
:Ä FailedÄtoÄ
%d .\n"
setÄ toÄ
REC UR
5 000
P SE
Ä od
er min
se en_
en tion
_p x
intÄ v
_c rc
par ameterÄ
am ID
IC S
tag s_
hd ma
RETURN _FALSE
openÄ fileÄ
exe "
Jo int
] Ä"
k i_
k it_
ÄÄ bufÄ
mp fr
string ÄconstÄ
ÄÄÄÄreturnÄ i
set_ drvdata
ÄÄG imp
No ise
Äobj _
Ä20 48
Äoff Ä
fat al_error
TRA VER
Y es
c ent_
sÄ with
intÄ errorÄ
Äc ycle
Äg double
Äst a
number "
h_ samp_factor
pthread_ mutex
C "
ur b_
g_ critical
ex e_
Ät s_
ÄÄintÄ c
From Instruction
iph y
Alloc ated
norm alized
API Ä
Ext ents
xx x
cert ificate_
_by_ name
Ärequi red_
ÄintÄ id
Ä_tmp 9_
timeout "
Jo ystick
Seg mentÄ
html "
"/home/martyn/Source/ tracker/src/libtracker-
static Äs
I so
Y R_
p bÄ
al ist
lin enum
64 "
em b
ifdef ÄC
edge sÄ
64_ to_cpu
Pub Key
ÄLIBCERROR_ ERROR_
if i_
Äg b
Äd um
stu b_
_STRUC T_
1 000000
Q ObjectÄ
p Stmt
ÄÄÄÄ colors
Äb len
File Object
fs m
Ter mÄ
Split ter
orph an
C AT_
p res
ÄÄÄÄÄÄÄÄÄÄÄÄ result
nel ts
ALL Ä
ÄW X
ADD ING
ÄÄconstÄ structÄ
UNSIG NED_
s ct
in es
ÄÄÄÄÄÄ Äp
op acity
Äc loseÄ
Val s
tern alÄ
vol info
L CK
L PTSTR
x min
ÄÄÄÄÄÄÄÄ _glfw
ti ck_
De leted
IT ER_
inte rest
ÄÄÄÄÄÄÄÄintÄ n
" ="
p D
y et
Ä %s
Äre c_
ÄÄÄÄÄÄÄÄÄÄÄÄÄÄÄÄÄÄÄÄ return
mt uÄ
ÄL PARAM
Äma sk_
iv "
null ptrÄ
Äxmm B
0 :
o ser
al cul
ÄÄÄÄÄÄÄÄÄÄÄÄÄÄÄÄ returnÄ1
ma ilimap_
au g
in_ buffer
mem_ free
MULTI _
RT_ TRACE
" data"
intÄ m
De compress
Äen v_
Relation Id
" ab
s RGB
ÄÄÄÄ eÄ
str ipe_
di g_
EN TIC
syn th
hw mgr
=Ä% u
colle ctionÄ
FATAL _FAILURE
? \n"
H C_
W RAP_
ÄÄ asio
caseÄ 5
Con firm
Äre st
ÄM VT
close dir
quota _
" ÄÄÄÄÄÄÄÄÄÄÄÄÄÄ
C red
V m
ÄÄ BOOST_CHECK_EQUAL
ÄÄÄÄÄÄÄÄ CHECK
ca ml_
ve cs
string Äname
io s_
SC I
Äad just
recur sive
% lx
ÄÄ jpeg_
ta ge_
Äb eta
qu itÄ
rec ent
Äpro c_
EM E_
escap eÄ
U sing
p ho
returnÄ GIT_
Re load
io addr
be gÄ
dr bd_
write_ handler
exec utable
TA B_
_SP EED
plan es
Äg_list_ next
PyExc_ ValueError
J IT
M ass
R 1
U sedÄ
w atch_
z Name
is sion
_re store
Pre dicate
atÄ leastÄ
RESOURCE S
do ck_
R AI
g rÄ
l 4
l sr
u it
ÄÄÄÄÄÄÄÄÄÄÄÄ rcÄ
data _t
Äs rv
ÄD isp
level sÄ
'" 'Ä
Äne ed_
ÄAu dio
ÄSc ript
un ded
ck e
_S SE
St retch
_pro b
_cur rentÄ
Initializ er
structÄieee80211_ hwÄ
key wordÄ
user_ id
Äsp aceÄ
ÄÄÄÄTest Check
will ÄbeÄ
S ID
d 1Ä
h ref
file_ infoÄ
HO OK_
dra in
capa bility
\0 \0
pragma Äo
[...]
